{
  "td": 14595,
  "crocodile": 21843,
  "testified": 14914,
  "livingston": 14109,
  "moody": 14434,
  "wren": 16255,
  "emmett": 25685,
  "territories": 6500,
  "pee": 21392,
  "avalon": 18973,
  "##aire": 14737,
  "marlborough": 22830,
  "pursue": 7323,
  "embarked": 11299,
  "##olic": 23518,
  "avengers": 14936,
  "est": 9765,
  "summoned": 11908,
  "aa": 9779,
  "scotia": 9676,
  "carbonate": 26427,
  "313": 22997,
  "rm": 28549,
  "262": 21950,
  "##hon": 8747,
  "\u092c": 1329,
  "refugee": 13141,
  "\u028a": 1132,
  "layne": 22452,
  "##\u05e4": 29807,
  "##\u02be": 29713,
  "##sque": 17729,
  "awareness": 7073,
  "bombers": 10544,
  "##gling": 18483,
  "##jon": 14339,
  "scarcely": 20071,
  "##master": 8706,
  "[unused606]": 611,
  "boss": 5795,
  "##fly": 14151,
  "formation": 4195,
  "touched": 5028,
  "##ken": 7520,
  "[unused543]": 548,
  "pseudo": 18404,
  "celebrations": 12035,
  "posing": 20540,
  "reece": 24227,
  "sep": 19802,
  "generosity": 26161,
  "kristin": 25130,
  "stint": 12116,
  "clench": 26753,
  "haas": 22996,
  "tanker": 20135,
  "footsteps": 9717,
  "occult": 27906,
  "\u5730": 1802,
  "##ture": 11244,
  "##ammed": 27479,
  "##ennial": 22929,
  "nomenclature": 23718,
  "bride": 8959,
  "leith": 29011,
  "turf": 14585,
  "1826": 11931,
  "berth": 17064,
  "lucivar": 21401,
  "clinic": 9349,
  "distinguish": 10782,
  "huntsville": 28492,
  "##oth": 14573,
  "probation": 19703,
  "##dt": 11927,
  "##rled": 27501,
  "[unused442]": 447,
  "locking": 14889,
  "##\u5b87": 30345,
  "dose": 13004,
  "rocco": 28167,
  "sympathetic": 13026,
  "po": 13433,
  "slower": 12430,
  "clare": 11152,
  "##lc": 15472,
  "1670": 26253,
  "cosmopolitan": 24686,
  "lebanese": 12592,
  "##dock": 14647,
  "losing": 3974,
  "lansing": 22304,
  "cake": 9850,
  "##\u694a": 30409,
  "pageant": 12438,
  "##\u0435": 15290,
  "##xes": 20156,
  "firstly": 15847,
  "dos": 9998,
  "vicki": 25424,
  "heroine": 18869,
  "thanking": 28638,
  "caleb": 10185,
  "napoleonic": 18813,
  "y": 1061,
  "dynamic": 8790,
  "disbanded": 8532,
  "gran": 12604,
  "senate": 4001,
  "dealer": 11033,
  "debuts": 26740,
  "##hoot": 23416,
  "peanut": 21443,
  "##tree": 13334,
  "collaborate": 20880,
  "chores": 27091,
  "wondering": 6603,
  "\u5b50": 1816,
  "accidental": 17128,
  "atletico": 16132,
  "##\u1106": 29995,
  "1800": 9807,
  "cathy": 18305,
  "palazzo": 18482,
  "##icles": 20921,
  "unhappy": 12511,
  "j": 1046,
  "1935": 4437,
  "declines": 26451,
  "reproduce": 21376,
  "##kka": 15714,
  "##\u2021": 30062,
  "richter": 20105,
  "sigh": 6682,
  "199": 20713,
  "##rrick": 24999,
  "anzac": 29224,
  "##and": 5685,
  "tree": 3392,
  "tucker": 9802,
  "capacities": 21157,
  "yun": 22854,
  "configured": 26928,
  "twelfth": 11313,
  "[unused551]": 556,
  "clung": 14752,
  "##)": 29620,
  "##inging": 23180,
  "safeguard": 28805,
  "references": 7604,
  "cretaceous": 18122,
  "image": 3746,
  "representatives": 4505,
  "competent": 17824,
  "##felt": 26675,
  "##rling": 22036,
  "mansions": 26842,
  "optimism": 27451,
  "transition": 6653,
  "contributors": 16884,
  "pulsing": 23139,
  "results": 3463,
  "secretaries": 23660,
  "exercising": 28428,
  "keane": 27228,
  "##>": 29631,
  "##ssi": 18719,
  "animated": 6579,
  "undergoes": 29129,
  "consortium": 12360,
  "##\u0997": 29891,
  "granada": 16553,
  "tennis": 5093,
  "47": 4700,
  "swimmer": 13361,
  "ho": 7570,
  "obedience": 22645,
  "indicating": 8131,
  "s": 1055,
  "\u79cb": 1929,
  "tuition": 15413,
  "##jan": 8405,
  "stretches": 14082,
  "##rium": 18802,
  "straw": 13137,
  "##nut": 24072,
  "[unused616]": 621,
  "##\u02b7": 29709,
  "region": 2555,
  "##suka": 26544,
  "##ulata": 18060,
  "[unused324]": 329,
  "caliph": 22733,
  "grace": 4519,
  "ci": 25022,
  "teased": 13074,
  "improve": 5335,
  "restricted": 7775,
  "sourced": 23184,
  "thrown": 6908,
  "genie": 22519,
  "evolved": 7964,
  "douglas": 5203,
  "everything": 2673,
  "figured": 6618,
  "pulses": 23894,
  "##sty": 21756,
  "evacuate": 22811,
  "swing": 7370,
  "capt": 14408,
  "##phobia": 24920,
  "demographics": 28321,
  "reviewer": 12027,
  "##eem": 21564,
  "oppressive": 28558,
  "said": 2056,
  "eva": 9345,
  "\u0280": 1127,
  "limo": 23338,
  "shivered": 13927,
  "rock": 2600,
  "##\u2212": 22543,
  "[unused876]": 881,
  "20th": 3983,
  "craving": 26369,
  "edwin": 10049,
  "presenting": 10886,
  "1711": 28455,
  "th": 16215,
  "##sund": 25168,
  "\u208e": 1559,
  "pairs": 7689,
  "##ndra": 17670,
  "##tel": 9834,
  "##\u09aa": 29903,
  "##\u304d": 30178,
  "willem": 18811,
  "astronomers": 26357,
  "sur": 7505,
  "technologies": 6786,
  "##asian": 24145,
  "[unused57]": 58,
  "##nism": 28113,
  "aleppo": 22973,
  "shin": 12277,
  "champ": 24782,
  "\u30ad": 1701,
  "louvre": 25110,
  "##omics": 25524,
  "eastward": 17318,
  "##tness": 27401,
  "opinions": 10740,
  "daphne": 16847,
  "##evic": 17726,
  "##lium": 21816,
  "2011": 2249,
  "auditor": 20964,
  "heinrich": 10952,
  "upbeat": 27999,
  "angular": 16108,
  "secluded": 27044,
  "susannah": 20471,
  "pudding": 29593,
  "##rons": 28212,
  "##\u0627\u0646": 18511,
  "lockheed": 17646,
  "1780": 15051,
  "##nius": 20447,
  "assembly": 3320,
  "val": 11748,
  "wandering": 13071,
  "clandestine": 24450,
  "usd": 13751,
  "thornton": 14630,
  "justification": 19777,
  "##ments": 8163,
  "kenton": 25446,
  "saves": 13169,
  "##\u3002": 30162,
  "pr": 10975,
  "baja": 19497,
  "extensions": 14305,
  "palma": 23985,
  "skating": 10080,
  "halo": 17201,
  "prisoners": 5895,
  "papyrus": 29575,
  "##\u5fc4": 30376,
  "17th": 5550,
  "argentina": 5619,
  "\u4ec1": 1758,
  "dimitri": 15953,
  "justin": 6796,
  "ares": 23631,
  "##\u045b": 29764,
  "disturbing": 14888,
  "rejects": 19164,
  "[unused287]": 292,
  "##inge": 23496,
  "donations": 11440,
  "vaughn": 18220,
  "##np": 16275,
  "cbc": 13581,
  "##\u110a": 29998,
  "neared": 20832,
  "got": 2288,
  "\u221a": 1600,
  "walked": 2939,
  "dell": 12418,
  "sgt": 17001,
  "whorls": 25637,
  "regulator": 21618,
  "##\u09b6": 29910,
  "freeman": 11462,
  "chronic": 11888,
  "flags": 9245,
  "blanche": 18158,
  "##\u0e19": 29949,
  "911": 19989,
  "dump": 15653,
  "grin": 5861,
  "##resh": 21898,
  "natalia": 21521,
  "[unused715]": 720,
  "reactive": 22643,
  "430": 19540,
  "##pac": 19498,
  "pike": 12694,
  "scouting": 14299,
  "[unused495]": 500,
  "pigeons": 27567,
  "[unused463]": 468,
  "##group": 17058,
  "[unused944]": 949,
  "cinderella": 21686,
  "gang": 6080,
  "suicide": 5920,
  "##usion": 14499,
  "152": 15017,
  "##hab": 25459,
  "bourne": 15803,
  "##ogan": 21131,
  "banker": 13448,
  "faye": 19243,
  "organisms": 11767,
  "wendy": 12815,
  "fragrance": 24980,
  "[unused878]": 883,
  "mont": 18318,
  "goddard": 22547,
  "laurel": 11893,
  "recipe": 17974,
  "suburbs": 9435,
  "\u05da": 1251,
  "climbed": 6589,
  "sr": 5034,
  "commissioner": 5849,
  "plunging": 29059,
  "enjoyment": 20195,
  "peg": 25039,
  "interfaces": 19706,
  "##dham": 17661,
  "designers": 11216,
  "trumpet": 9368,
  "##sar": 10286,
  "194": 19955,
  "buddhism": 11388,
  "##nne": 10087,
  "samoa": 15075,
  "goodnight": 22708,
  "dashed": 18198,
  "dino": 22412,
  "regulars": 24945,
  "##dick": 24066,
  "awful": 9643,
  "cats": 8870,
  "buyer": 17634,
  "pomeranian": 17717,
  "ralph": 6798,
  "!": 999,
  "##giving": 23795,
  "##script": 22483,
  "4th": 4343,
  "##tman": 22942,
  "monarchy": 12078,
  "vamp": 20279,
  "clinched": 18311,
  "##ue": 5657,
  "[unused289]": 294,
  "genus": 3562,
  "fraudulent": 27105,
  "##f": 2546,
  "##tes": 4570,
  "##zuka": 22968,
  "frowned": 7335,
  "\u09a4": 1362,
  "processes": 6194,
  "\u09a8": 1366,
  "[unused634]": 639,
  "##esian": 25253,
  "connor": 6720,
  "ia": 24264,
  "gates": 6733,
  "\u5dff": 1837,
  "1799": 13839,
  "computation": 22334,
  "violations": 13302,
  "having": 2383,
  "oversee": 17467,
  "textbooks": 18841,
  "06": 5757,
  "\u2015": 1518,
  "montana": 8124,
  "patrick": 4754,
  "appears": 3544,
  "butterfly": 9112,
  "rituals": 13549,
  "putting": 5128,
  "670": 25535,
  "mongols": 22235,
  "bracing": 25919,
  "pow": 23776,
  "vase": 18781,
  "shreveport": 23740,
  "##ias": 7951,
  "worship": 7425,
  "hatred": 11150,
  "gasping": 17054,
  "##iba": 18410,
  "diaries": 18707,
  "reaching": 4285,
  "require": 5478,
  "processor": 13151,
  "[unused623]": 628,
  "thoughts": 4301,
  "[unused354]": 359,
  "##red": 5596,
  "[unused223]": 228,
  "flights": 7599,
  "##rogated": 26565,
  "kits": 18628,
  "democrats": 8037,
  "spur": 12996,
  "utah": 6646,
  "argument": 6685,
  "\u68ee": 1882,
  "terrorists": 15554,
  "uttar": 14940,
  "instant": 7107,
  "whether": 3251,
  "\u0e07": 1410,
  "ding": 22033,
  "sucked": 8631,
  "periods": 6993,
  "acquired": 3734,
  "cart": 11122,
  "##pers": 7347,
  "[unused907]": 912,
  "fashionable": 19964,
  "bottoms": 24196,
  "##antly": 15706,
  "philology": 29286,
  "shoreline": 17721,
  "championed": 28683,
  "spinning": 9419,
  "conscription": 26329,
  "none": 3904,
  "##is": 2483,
  "volcano": 12779,
  "toss": 10055,
  "1925": 4849,
  "##inen": 21820,
  "forms": 3596,
  "tourism": 6813,
  "hail": 16889,
  "desperation": 15561,
  "\u5065": 1768,
  "[unused103]": 108,
  "chases": 29515,
  "qc": 25196,
  "##une": 9816,
  "inventory": 12612,
  "eucalyptus": 27111,
  "robust": 15873,
  "##ower": 25114,
  "mcc": 23680,
  "##hmi": 26837,
  "barangay": 20937,
  "revelation": 11449,
  "ruler": 7786,
  "shattering": 21797,
  "stark": 9762,
  "featherweight": 27145,
  "1862": 6889,
  "[unused220]": 225,
  "beach": 3509,
  "passport": 12293,
  "shipbuilding": 16802,
  "would": 2052,
  "##tiv": 29068,
  "compressed": 16620,
  "##gist": 24063,
  "##gong": 17036,
  "amplifiers": 28633,
  "comte": 19758,
  "foreigner": 29524,
  "symbols": 9255,
  "inward": 20546,
  "stain": 21101,
  "flushing": 23519,
  "520": 19611,
  "mined": 21846,
  "pleased": 7537,
  "retailers": 16629,
  "norma": 20692,
  "hasn": 8440,
  "privilege": 14293,
  "churches": 5231,
  "exhausted": 9069,
  "bullock": 25200,
  "harden": 28751,
  "dunbar": 23034,
  "songwriters": 20602,
  "proposal": 6378,
  "conflict": 4736,
  "\u793e": 1924,
  "vague": 13727,
  "anderson": 5143,
  "reflection": 9185,
  "##ra": 2527,
  "##\u00bd": 13714,
  "specially": 11974,
  "infinite": 10709,
  "adobe": 18106,
  "65": 3515,
  "centrally": 25497,
  "##powered": 27267,
  "##see": 19763,
  "##tlement": 24007,
  "hint": 9374,
  "##ka": 2912,
  "apostle": 20121,
  "card": 4003,
  "projections": 21796,
  "near": 2379,
  "mas": 16137,
  "tributaries": 15777,
  "##zan": 13471,
  "##rade": 13662,
  "\u3093": 1691,
  "hardwood": 23165,
  "prominently": 14500,
  "additional": 3176,
  "vegetable": 15415,
  "##osi": 20049,
  "##mba": 11201,
  "appalachian": 19682,
  "complaints": 10821,
  "##mas": 9335,
  "cabin": 6644,
  "numbering": 15200,
  "ankle": 10792,
  "harding": 15456,
  "raised": 2992,
  "[unused7]": 8,
  "chewing": 17492,
  "##din": 8718,
  "conde": 24707,
  "##uddin": 17375,
  "dfb": 28894,
  "observes": 24451,
  "[unused456]": 461,
  "judgement": 16646,
  "##li": 3669,
  "localities": 19664,
  "##7th": 27506,
  "picturesque": 23273,
  "katharine": 25739,
  "##\u03bb": 29727,
  "cardiff": 10149,
  "settles": 27221,
  "elders": 13376,
  "racetrack": 28435,
  "buy": 4965,
  "kilometre": 13214,
  "##bius": 17028,
  "glasgow": 6785,
  "##lto": 23223,
  "screenplay": 9000,
  "pyramid": 11918,
  "crushing": 14527,
  "thug": 26599,
  "femme": 26893,
  "reviewing": 15252,
  "fates": 26417,
  "developments": 8973,
  "##lled": 11001,
  "marshal": 8610,
  "##ge": 3351,
  "subspecies": 11056,
  "rory": 14285,
  "mccarthy": 12584,
  "tenant": 16713,
  "pot": 8962,
  "##eland": 25689,
  "cinder": 29399,
  "transparent": 13338,
  "temperate": 16868,
  "##nary": 24041,
  "##rud": 28121,
  "##ed": 2098,
  "drought": 14734,
  "increases": 7457,
  "sending": 6016,
  "im": 10047,
  "bushes": 14568,
  "expression": 3670,
  "hoped": 5113,
  "encompasses": 13974,
  "ic": 24582,
  "oak": 6116,
  "rutherford": 18472,
  "seals": 13945,
  "hundreds": 5606,
  "\u1d56": 1504,
  "chimney": 17321,
  "restraints": 28054,
  "daily": 3679,
  "joanne": 23459,
  "overview": 19184,
  "programmed": 16984,
  "nueva": 24536,
  "aunt": 5916,
  "devils": 13664,
  "genevieve": 20245,
  "miracle": 9727,
  "##evsky": 27015,
  "portsmouth": 10913,
  "\u0283": 1130,
  "140": 8574,
  "selected": 3479,
  "statesman": 17689,
  "curl": 15390,
  "glaring": 16124,
  "##ater": 24932,
  "heir": 8215,
  "baha": 13253,
  "##\u6708": 30398,
  "##cats": 19588,
  "imprint": 15738,
  "priority": 9470,
  "[unused340]": 345,
  "spartak": 28560,
  "seamus": 24993,
  "refreshing": 27150,
  "##ks": 5705,
  "academics": 15032,
  "metallic": 12392,
  "man": 2158,
  "dissatisfaction": 28237,
  "ore": 10848,
  "\u00a9": 1075,
  "new": 2047,
  "dolphins": 13600,
  "sited": 28603,
  "##rgy": 22637,
  "gary": 5639,
  "rigged": 25216,
  "canning": 24549,
  "puzzled": 14909,
  "chart": 3673,
  "hairy": 15892,
  "golden": 3585,
  "verb": 12034,
  "simi": 28684,
  "##toy": 29578,
  "goodwin": 19928,
  "uppsala": 25720,
  "clues": 15774,
  "landmark": 8637,
  "##ott": 14517,
  "viewpoint": 21386,
  "trance": 16588,
  "precinct": 18761,
  "storytelling": 20957,
  "\u0255": 1113,
  "map": 4949,
  "female": 2931,
  "##unas": 23904,
  "loyola": 21580,
  "leighton": 26873,
  "nobles": 13969,
  "\u09b0": 1372,
  "renew": 20687,
  "\u2116": 1578,
  "adapt": 15581,
  "lars": 16357,
  "[unused799]": 804,
  "##lland": 26087,
  "rust": 18399,
  "electronic": 4816,
  "\u03bb": 1165,
  "rot": 18672,
  "ellen": 9155,
  "sorting": 22210,
  "canned": 27141,
  "counted": 8897,
  "leans": 12671,
  "hate": 5223,
  "everyone": 3071,
  "fern": 20863,
  "leaving": 2975,
  "blur": 14819,
  "success": 3112,
  "traces": 10279,
  "##olo": 12898,
  "rural": 3541,
  "posterior": 15219,
  "tin": 9543,
  "tobias": 16858,
  "villa": 6992,
  "##ards": 18117,
  "robinson": 6157,
  "consecutive": 5486,
  "currency": 9598,
  "marched": 9847,
  "[unused423]": 428,
  "1895": 6301,
  "[unused240]": 245,
  "hunan": 27374,
  "lurched": 21977,
  "songwriting": 14029,
  "\u10d4": 1442,
  "aiming": 13659,
  "seizures": 25750,
  "\u03b3": 1157,
  "matter": 3043,
  "sampling": 16227,
  "transportation": 5193,
  "downtown": 5116,
  "gough": 29124,
  "247": 23380,
  "twisting": 12814,
  "##rous": 13288,
  "##gel": 12439,
  "bauer": 17838,
  "rally": 8320,
  "##ku": 5283,
  "juicy": 28900,
  "medallist": 28595,
  "romani": 23982,
  "spine": 8560,
  "manually": 21118,
  "##ffin": 15379,
  "flatly": 24295,
  "shea": 16994,
  "granville": 24926,
  "##lee": 10559,
  "barriers": 13500,
  "concentrating": 16966,
  "seafood": 23621,
  "maybe": 2672,
  "arrogance": 24416,
  "turks": 12896,
  "doctor": 3460,
  "principality": 18018,
  "section": 2930,
  "soft": 3730,
  "mein": 24182,
  "##film": 23665,
  "[unused502]": 507,
  "ea": 19413,
  "pure": 5760,
  "##\u02c8": 29715,
  "##\u0628\u0627\u062f": 25799,
  "basel": 14040,
  "holland": 7935,
  "1847": 9176,
  "##promising": 25013,
  "helicopter": 7739,
  "[unused695]": 700,
  "scenery": 17363,
  "##own": 12384,
  "mage": 17454,
  "taekwondo": 28529,
  "##\u884c": 30471,
  "my": 2026,
  "doctoral": 11316,
  "[unused497]": 502,
  "\u2248": 1606,
  "lovers": 10205,
  "batting": 9640,
  "africans": 18076,
  "venetian": 15510,
  "felicia": 27579,
  "paws": 24392,
  "baird": 20866,
  "##ancy": 11656,
  "alf": 24493,
  "gloria": 10778,
  "slowing": 18068,
  "##nco": 15305,
  "launched": 3390,
  "laurence": 10883,
  "##\u672c": 30402,
  "raising": 6274,
  "pumpkin": 25730,
  "inched": 25330,
  "varying": 9671,
  "##aj": 13006,
  "factions": 13815,
  "oilers": 19778,
  "grave": 6542,
  "##oop": 18589,
  "##rada": 28510,
  "cat": 4937,
  "lauderdale": 23520,
  "##eration": 16754,
  "expired": 13735,
  "##\u0bb0": 29927,
  "fluid": 8331,
  "gender": 5907,
  "stations": 3703,
  "elsewhere": 6974,
  "practical": 6742,
  "sabah": 22515,
  "snorted": 15235,
  "medley": 13863,
  "##sas": 20939,
  "slim": 11754,
  "laura": 6874,
  "loaf": 27048,
  "allotted": 23932,
  "##write": 26373,
  "reacted": 14831,
  "1950s": 4856,
  "lowest": 7290,
  "##\u0282": 29695,
  "fresh": 4840,
  "[unused270]": 275,
  "##vs": 15088,
  "monitored": 17785,
  "eyelids": 16544,
  "esteem": 19593,
  "swelled": 21851,
  "##tley": 18492,
  "request": 5227,
  "##\u30a6": 30222,
  "jerome": 11120,
  "##uan": 13860,
  "mir": 14719,
  "awaited": 19605,
  "weakening": 22031,
  "scrubbed": 27820,
  "life": 2166,
  "any": 2151,
  "##anor": 27869,
  "fellowships": 27298,
  "##ize": 4697,
  "burlington": 15552,
  "harshly": 21052,
  "thirst": 21810,
  "garfield": 20170,
  "philosophers": 17586,
  "keynote": 25569,
  "grimm": 24287,
  "ryu": 19367,
  "archdiocese": 12658,
  "mommy": 20565,
  "insisting": 22604,
  "survives": 13655,
  "herd": 14906,
  "pathetic": 17203,
  "outputs": 27852,
  "mischief": 25166,
  "##\u0649": 29837,
  "1550": 26245,
  "marshall": 5832,
  "awoke": 19179,
  "eun": 26070,
  "received": 2363,
  "colonists": 15526,
  "loren": 28779,
  "vapor": 20064,
  "##1": 2487,
  "##rued": 28551,
  "##\u00a1": 29644,
  "sensations": 21378,
  "cheerfully": 27403,
  "show": 2265,
  "##kovic": 14733,
  "##\u00df": 19310,
  "projectile": 25921,
  "hague": 14575,
  "rudder": 24049,
  "iconic": 14430,
  "tomato": 20856,
  "recorder": 14520,
  "337": 28489,
  "boulder": 13264,
  "chopra": 28826,
  "##lity": 18605,
  "nathan": 7150,
  "transitional": 17459,
  "##icated": 17872,
  "arjun": 26024,
  "warming": 12959,
  "##eral": 21673,
  "1832": 10212,
  "kong": 4290,
  "motion": 4367,
  "haired": 10681,
  "nes": 24524,
  "abel": 16768,
  "##ately": 28239,
  "##utation": 26117,
  "celebrates": 21566,
  "##naut": 24619,
  "irregularities": 28868,
  "rutland": 27780,
  "spilled": 13439,
  "##@": 29633,
  "domestically": 27143,
  "molina": 25601,
  "descriptions": 13271,
  "innsbruck": 28914,
  "mercenaries": 19331,
  "coal": 5317,
  "shifter": 18189,
  "worrying": 15366,
  "\uff01": 1986,
  "battalion": 4123,
  "christensen": 24189,
  "pools": 12679,
  "curling": 11599,
  "predicting": 29458,
  "oblique": 20658,
  "peters": 12420,
  "starter": 11753,
  "1990s": 4134,
  "bargaining": 21990,
  "[unused75]": 76,
  "jenny": 8437,
  "1744": 25846,
  "crunch": 24514,
  "\u4e0a": 1742,
  "318": 27003,
  "doubted": 12979,
  "recognize": 6807,
  "saetan": 23515,
  "mondays": 28401,
  "56th": 29087,
  "[unused155]": 160,
  "pokemon": 20421,
  "foreword": 23059,
  "##jima": 19417,
  "##sd": 16150,
  "visitation": 28877,
  "##\u2663": 30151,
  "stiffly": 27499,
  "including": 2164,
  "##moral": 22049,
  "headline": 17653,
  "differences": 5966,
  "hendricks": 28895,
  "constant": 5377,
  "##ush": 20668,
  "pistols": 18248,
  "involuntary": 26097,
  "physician": 7522,
  "entertain": 20432,
  "reception": 7684,
  "nights": 6385,
  "menon": 25111,
  "above": 2682,
  "##ssed": 29417,
  "ancestors": 10748,
  "richer": 26108,
  "sucks": 19237,
  "celebrate": 8439,
  "kissed": 4782,
  "##ggio": 20650,
  "clube": 24852,
  "indonesia": 6239,
  "awhile": 19511,
  "rotting": 22005,
  "theatres": 13166,
  "1756": 22370,
  "dudley": 12648,
  "margaret": 5545,
  "prosperity": 14165,
  "355": 26271,
  "cowboy": 11762,
  "##bes": 12681,
  "coupe": 15130,
  "##mind": 23356,
  "guarded": 13802,
  "rockies": 22366,
  "astonishment": 23819,
  "welded": 29014,
  "##uts": 16446,
  "##kell": 18690,
  "cambridge": 4729,
  "relational": 28771,
  "##cultural": 29415,
  "code": 3642,
  "mandolin": 17687,
  "providers": 11670,
  "ari": 10488,
  "outing": 26256,
  "roads": 4925,
  "collections": 6407,
  "dispersed": 15484,
  "josie": 15293,
  "##ear": 14644,
  "nesting": 21016,
  "sherry": 22268,
  "carrot": 25659,
  "examine": 11628,
  "retained": 6025,
  "##logie": 27095,
  "standardized": 16367,
  "afb": 16909,
  "##ien": 9013,
  "##ente": 15781,
  "##xious": 25171,
  "ion": 10163,
  "substantial": 6937,
  "while": 2096,
  "contrasted": 22085,
  "amateurs": 24361,
  "rejecting": 21936,
  "alvin": 17348,
  "pagoda": 27387,
  "1797": 14112,
  "defeating": 6324,
  "##\u0637": 29828,
  "ample": 20851,
  "colin": 6972,
  "hyundai": 25983,
  "\u53e4": 1789,
  "lisa": 7059,
  "##anger": 25121,
  "sociologist": 25106,
  "panzer": 16946,
  "highs": 26836,
  "richly": 26502,
  "garland": 17017,
  "successfully": 5147,
  "\u098f": 1351,
  "neutron": 20393,
  "curran": 19649,
  "##foil": 24323,
  "emerge": 12636,
  "maiden": 10494,
  "gabled": 26182,
  "draught": 25349,
  "barnet": 26864,
  "jul": 21650,
  "##\u3068": 30192,
  "swirled": 19171,
  "priest": 5011,
  "socket": 22278,
  "wife": 2564,
  "pregnant": 6875,
  "##cera": 19357,
  "\u5742": 1803,
  "rosary": 28291,
  "changes": 3431,
  "outdoors": 19350,
  "\u1174": 1482,
  "capital": 3007,
  "maker": 9338,
  "portals": 27388,
  "pursuit": 8463,
  "ducked": 13781,
  "chieftain": 26625,
  "beats": 10299,
  "restroom": 28249,
  "virgil": 17270,
  "chili": 20238,
  "##corp": 24586,
  "baton": 15302,
  "additions": 13134,
  "monte": 10125,
  "warned": 7420,
  "nils": 27282,
  "spectators": 12405,
  "waits": 18074,
  "aegean": 27198,
  "acheron": 21427,
  "attempting": 7161,
  "maid": 10850,
  "##ann": 11639,
  "form": 2433,
  "johansson": 26447,
  "deserted": 12768,
  "[unused48]": 49,
  "loretta": 28493,
  "wee": 16776,
  "fearless": 22518,
  "##bbon": 27684,
  "##gard": 13444,
  "##stan": 12693,
  "hunted": 14682,
  "pearls": 21944,
  "bald": 13852,
  "##alo": 23067,
  "colon": 16844,
  "tariffs": 26269,
  "##ng": 3070,
  "liquids": 26820,
  "wrist": 7223,
  "pond": 8644,
  "braking": 24427,
  "uncomfortably": 22502,
  "arson": 24912,
  "ashore": 16145,
  "nicolas": 9473,
  "computer": 3274,
  "##fc": 11329,
  "##\u5d0e": 30360,
  "languages": 4155,
  "ace": 9078,
  "##bin": 8428,
  "expeditionary": 15372,
  "##ested": 17944,
  "\u00ae": 1079,
  "prominence": 12144,
  "##grad": 16307,
  "da": 4830,
  "25th": 10965,
  "remastered": 19484,
  "serb": 20180,
  "accreditation": 14893,
  "##ulate": 9869,
  "##\u76ee": 30444,
  "disputed": 11621,
  "furiously": 20322,
  "unspoken": 25982,
  "coe": 24873,
  "concepcion": 27331,
  "##nb": 27698,
  "chaplain": 14011,
  "exciting": 10990,
  "##arney": 25831,
  "rabbi": 7907,
  "reefs": 21484,
  "##onga": 26356,
  "kenya": 7938,
  "##lick": 25230,
  "stew": 20717,
  "speechless": 25146,
  "spilling": 18054,
  "concordia": 24982,
  "petra": 20953,
  "padre": 28612,
  "eerie": 18823,
  "gazes": 23514,
  "1956": 3838,
  "preparation": 7547,
  "dialogues": 22580,
  "touchdowns": 10183,
  "becca": 22140,
  "closest": 7541,
  "lay": 3913,
  "talent": 5848,
  "##lor": 10626,
  "enacted": 11955,
  "soothe": 28384,
  "imaging": 12126,
  "308": 24232,
  "elections": 3864,
  "##\u524d": 30302,
  "decline": 6689,
  "\u20a9": 1573,
  "leicester": 11258,
  "genome": 13458,
  "caressing": 25296,
  "\u6b63": 1888,
  "nurse": 6821,
  "crowded": 10789,
  "casts": 23942,
  "tubes": 10868,
  "##rco": 29566,
  "stayed": 4370,
  "mum": 12954,
  "receipt": 24306,
  "##erated": 16848,
  "##lty": 24228,
  "\u00b0c": 6362,
  "guarantee": 11302,
  "##ops": 11923,
  "refers": 5218,
  "##erative": 25284,
  "racks": 27259,
  "##ben": 10609,
  "lasted": 6354,
  "layered": 21323,
  "sadly": 13718,
  "[unused827]": 832,
  "blended": 19803,
  "336": 27954,
  "##\u026a": 29685,
  "abrams": 23063,
  "exeter": 12869,
  "##uss": 17854,
  "founded": 2631,
  "##mined": 25089,
  "[unused128]": 133,
  "conservatoire": 29233,
  "exhibited": 8176,
  "glance": 6054,
  "##il": 4014,
  "1791": 14362,
  "demise": 13614,
  "nursing": 8329,
  "wagon": 9540,
  "satin": 19412,
  "eta": 27859,
  "silky": 18848,
  "\u2202": 1592,
  "##iko": 12676,
  "281": 22955,
  "castle": 3317,
  "reverted": 16407,
  "scored": 3195,
  "##eros": 27360,
  "harsh": 8401,
  "blockade": 15823,
  "\u66f2": 1870,
  "spices": 21729,
  "sculpture": 6743,
  "increasing": 4852,
  "mohammad": 12050,
  "212": 18164,
  "mandal": 24373,
  "problem": 3291,
  "glowed": 16497,
  "romanian": 7056,
  "##\u571f": 30327,
  "carolyn": 15611,
  "ye": 6300,
  "##vac": 24887,
  "atlanta": 5865,
  "academia": 16926,
  "compression": 13379,
  "archived": 9749,
  "eels": 29317,
  "descriptive": 22726,
  "fbi": 8495,
  "##\u03c6": 29736,
  "fibers": 16662,
  "matthews": 12351,
  "##zer": 6290,
  "[unused30]": 31,
  "lyric": 13677,
  "delay": 8536,
  "walter": 4787,
  "##ooped": 20671,
  "\u9580": 1968,
  "##quay": 25575,
  "voodoo": 21768,
  "wallet": 15882,
  "insulting": 23979,
  "##nd": 4859,
  "invaded": 10836,
  "review": 3319,
  "smiles": 8451,
  "minimize": 18478,
  "spin": 6714,
  "waterfront": 16317,
  "interesting": 5875,
  "reservation": 11079,
  "##cased": 28969,
  "##side": 7363,
  "biblical": 10213,
  "rhone": 22351,
  "specialist": 8325,
  "ellis": 8547,
  "platinum": 8899,
  "supervising": 21238,
  "##ving": 6455,
  "propose": 16599,
  "promoters": 26512,
  "jeopardy": 26604,
  "yamamoto": 28318,
  "##mmon": 24521,
  "celebrated": 6334,
  "conduct": 6204,
  "telugu": 12180,
  "wrath": 14532,
  "##quin": 12519,
  "anyone": 3087,
  "outcomes": 13105,
  "screamed": 7210,
  "colbert": 23928,
  "temperature": 4860,
  "[unused242]": 247,
  "sloop": 24786,
  "uncommon": 13191,
  "425": 23285,
  "fifth": 3587,
  "##ashi": 12914,
  "medal": 3101,
  "airfields": 25278,
  "##att": 19321,
  "##ama": 8067,
  "settlers": 7322,
  "bernie": 15941,
  "ascent": 16354,
  "tiberius": 28411,
  "##izes": 10057,
  "minimum": 6263,
  "[unused224]": 229,
  "urging": 14328,
  "paddle": 20890,
  "pilgrim": 21214,
  "\u06be": 1307,
  "bullets": 10432,
  "pursuits": 23719,
  "parted": 10277,
  "tools": 5906,
  "##rke": 25074,
  "apprehension": 25809,
  "lyrics": 4581,
  "wreck": 12006,
  "##\u91ce": 30489,
  "##edance": 29605,
  "[unused267]": 272,
  "emerald": 14110,
  "nationalism": 14594,
  "##iate": 13143,
  "clearance": 14860,
  "calling": 4214,
  "##gins": 16529,
  "residues": 22644,
  "[unused840]": 845,
  "yahoo": 20643,
  "##rly": 21194,
  "##\u2080": 17110,
  "inferno": 21848,
  "annoying": 15703,
  "binds": 20817,
  "program": 2565,
  "tunic": 23002,
  "morrow": 19084,
  "guru": 11972,
  "constantinople": 11776,
  "cubic": 11919,
  "acknowledges": 28049,
  "originally": 2761,
  "##~": 29643,
  "murals": 19016,
  "mcleod": 25363,
  "anime": 8750,
  "##ilia": 27861,
  "scraping": 23704,
  "nissan": 16509,
  "##agger": 27609,
  "aimed": 6461,
  "tables": 7251,
  "##crest": 25313,
  "differing": 16965,
  "stamps": 12133,
  "nationwide": 9053,
  "\u09be": 1378,
  "charging": 13003,
  "\u524d": 1776,
  "smartphone": 26381,
  "\u2026": 1529,
  "[unused76]": 77,
  "1652": 28853,
  "lust": 11516,
  "langley": 19094,
  "##icate": 24695,
  "nigel": 12829,
  "boulders": 22177,
  "prints": 11204,
  "sagged": 26719,
  "narayan": 24331,
  "##sible": 19307,
  "deliberately": 9969,
  "forehead": 6130,
  "techniques": 5461,
  "##pts": 22798,
  "tucking": 25056,
  "\u96c4": 1974,
  "cardiac": 15050,
  "whale": 13156,
  "eldest": 7310,
  "fc": 4429,
  "\u00bc": 1091,
  "tunisian": 22946,
  "cliffs": 13333,
  "blinked": 7948,
  "##man": 2386,
  "##un": 4609,
  "informal": 11900,
  "dioceses": 26586,
  "raceway": 23018,
  "concerts": 6759,
  "##ered": 6850,
  "formerly": 3839,
  "netting": 26909,
  "[unused106]": 111,
  "rebirth": 22785,
  "mechanical": 6228,
  "fused": 19660,
  "ley": 25866,
  "##inas": 15227,
  "midsummer": 28171,
  "prey": 8336,
  "authorised": 19256,
  "apr": 19804,
  "white": 2317,
  "concurrency": 24154,
  "bolivian": 26075,
  "nikita": 29106,
  "novak": 19580,
  "advising": 23875,
  "aggregator": 24089,
  "appointing": 28050,
  "chin": 5413,
  "detention": 12345,
  "severely": 8949,
  "\u03bc": 1166,
  "werner": 14121,
  "##eh": 11106,
  "chopin": 25479,
  "consist": 8676,
  "battleship": 17224,
  "jessie": 10934,
  "superb": 21688,
  "encompassing": 19129,
  "maria": 3814,
  "##mann": 5804,
  "elgin": 23792,
  "saga": 12312,
  "compute": 24134,
  "keenan": 26334,
  "##kshi": 27488,
  "##basket": 25351,
  "arrived": 3369,
  "confluence": 13693,
  "1675": 27194,
  "fin": 10346,
  "senator": 5205,
  "##isch": 19946,
  "axis": 8123,
  "abundance": 14531,
  "kira": 15163,
  "reports": 4311,
  "launching": 12106,
  "accusing": 16723,
  "##tical": 14656,
  "##edging": 28002,
  "awakening": 16936,
  "builders": 16472,
  "crabs": 26076,
  "deploy": 21296,
  "##unt": 16671,
  "injected": 19737,
  "louie": 17438,
  "anarchist": 18448,
  "invasion": 5274,
  "cursing": 19752,
  "investigator": 14064,
  "##rnet": 26573,
  "[unused640]": 645,
  "56": 5179,
  "rappers": 28257,
  "sal": 16183,
  "ville": 20184,
  "villain": 12700,
  "##hic": 16066,
  "weeping": 19750,
  "munchen": 25802,
  "##rdan": 26992,
  "shame": 9467,
  "coping": 27520,
  "mold": 18282,
  "1864": 6717,
  "refusing": 11193,
  "rob": 6487,
  "seattle": 5862,
  "stare": 6237,
  "##lance": 23078,
  "pumping": 14107,
  "cordoba": 17986,
  "[unused372]": 377,
  "sheriff": 6458,
  "buzz": 12610,
  "##rim": 20026,
  "fragile": 13072,
  "thriving": 20319,
  "twist": 9792,
  "valiant": 24329,
  "baths": 19692,
  "impetus": 27961,
  "affiliate": 8727,
  "thugs": 24106,
  "patterns": 7060,
  "voiced": 6126,
  "keeps": 7906,
  "##vre": 12229,
  "##gos": 12333,
  "fritz": 12880,
  "guitar": 2858,
  "lair": 21039,
  "marco": 8879,
  "tagged": 26610,
  "faa": 17032,
  "possesses": 14882,
  "telephone": 7026,
  "firing": 7493,
  "enjoys": 15646,
  "sidekick": 29240,
  "[unused384]": 389,
  "[unused79]": 80,
  "leland": 27134,
  "husky": 18758,
  "les": 4649,
  "syn": 19962,
  "temporarily": 8184,
  "##ngen": 25997,
  "##sin": 11493,
  "downing": 22501,
  "papers": 4981,
  "widen": 21255,
  "expedition": 5590,
  "bunny": 16291,
  "angles": 12113,
  "encounter": 8087,
  "recognized": 3858,
  "bishop": 3387,
  "adopted": 4233,
  "comfortable": 6625,
  "contention": 18974,
  "##acio": 21361,
  "saxons": 28267,
  "mothers": 10756,
  "fabrication": 25884,
  "pass": 3413,
  "747": 25374,
  "apparently": 4593,
  "cent": 9358,
  "sporting": 7419,
  "\u1107": 1460,
  "evie": 26400,
  "tires": 13310,
  "\u0965": 1345,
  "diffuse": 28105,
  "taken": 2579,
  "\u2ea9": 1632,
  "reindeer": 29495,
  "gaped": 23832,
  "nationale": 17360,
  "perspectives": 15251,
  "##\u3092": 30216,
  "wiring": 27930,
  "procession": 14385,
  "[unused189]": 194,
  "floppy": 28491,
  "18th": 4985,
  "tripped": 21129,
  "reza": 26323,
  "emmy": 10096,
  "jozef": 23258,
  "elbows": 13690,
  "245": 21005,
  "module": 11336,
  "grabs": 13273,
  "1500": 10347,
  "brad": 8226,
  "remained": 2815,
  "lithuania": 9838,
  "retribution": 25928,
  "##woman": 10169,
  "##charged": 22620,
  "##rew": 15603,
  "lizard": 15450,
  "##talk": 28014,
  "isle": 8842,
  "specimens": 9908,
  "amassed": 22151,
  "\u209a": 1569,
  "madonna": 11284,
  "traders": 13066,
  "##bula": 28507,
  "baylor": 23950,
  "omega": 14827,
  "##eno": 16515,
  "bunch": 9129,
  "goldberg": 18522,
  "facts": 8866,
  "hardest": 18263,
  "exclusive": 7262,
  "int": 20014,
  "lombard": 23441,
  "050": 28714,
  "seal": 7744,
  "walnut": 18489,
  "##ulo": 18845,
  "phrases": 15672,
  "vile": 25047,
  "\u0b9f": 1384,
  "columbian": 25882,
  "tool": 6994,
  "fa": 6904,
  "00": 4002,
  "##rrie": 22155,
  "athlete": 8258,
  "lasting": 9879,
  "ph": 6887,
  "nordic": 13649,
  "revenge": 7195,
  "areas": 2752,
  "indus": 27746,
  "lining": 14834,
  "lottery": 15213,
  "turkmenistan": 25432,
  "yarn": 27158,
  "minds": 9273,
  "cryptic": 26483,
  "smuggling": 19535,
  "72": 5824,
  "hesitate": 16390,
  "cafe": 7668,
  "should": 2323,
  "##wled": 28365,
  "chickens": 21868,
  "1805": 13126,
  "intending": 16533,
  "\u6cb3": 1899,
  "delta": 7160,
  "pro": 4013,
  "jeanne": 14537,
  "\u3072": 1673,
  "##\u091c": 29855,
  "intercourse": 23198,
  "starved": 26042,
  "1771": 20708,
  "ezekiel": 28743,
  "feasibility": 24010,
  "sui": 24086,
  "\u2092": 1562,
  "avid": 18568,
  "squirrels": 29384,
  "##dington": 21504,
  "[unused130]": 135,
  "an": 2019,
  "startup": 22752,
  "strolled": 20354,
  "spartans": 24293,
  "smoking": 9422,
  "antigua": 26023,
  "slices": 25609,
  "/": 1013,
  "beaches": 12212,
  "lantern": 12856,
  "##\u674e": 30403,
  "[unused813]": 818,
  "scoffed": 26326,
  "##ino": 5740,
  "familiar": 5220,
  "moor": 16808,
  "sailing": 8354,
  "damien": 12587,
  "[unused510]": 515,
  "1733": 27230,
  "##breakers": 27623,
  "cornish": 17797,
  "patiently": 19080,
  "blunt": 14969,
  "scripted": 22892,
  "rep": 16360,
  "vigor": 24474,
  "attendants": 26727,
  "rbi": 16929,
  "usa": 3915,
  "##chal": 18598,
  "marked": 4417,
  "\u667a": 1869,
  "friedman": 18486,
  "##ba": 3676,
  "1732": 27582,
  "cao": 12966,
  "detectors": 25971,
  "motor": 5013,
  "conway": 14783,
  "possessing": 18840,
  "boots": 6879,
  "cuckoo": 29010,
  "strong": 2844,
  "only": 2069,
  "thompson": 5953,
  "##nsky": 25655,
  "uniformly": 27423,
  "##lik": 18393,
  "##\u30bf": 30235,
  "failed": 3478,
  "##mbled": 23931,
  "##erian": 27549,
  "mortals": 23844,
  "yearbook": 24803,
  "\u611b": 1853,
  "[unused47]": 48,
  "##pee": 28084,
  "icao": 18055,
  "tun": 27112,
  "##rner": 18703,
  "carlos": 5828,
  "fountain": 9545,
  "connector": 19400,
  "atheist": 23503,
  ".": 1012,
  "##ub": 12083,
  "kun": 28919,
  "virtually": 8990,
  "chet": 25157,
  "##lier": 14355,
  "fiddle": 15888,
  "[unused123]": 128,
  "molecules": 10737,
  "[unused874]": 879,
  "##owe": 29385,
  "palatine": 22202,
  "depths": 11143,
  "duct": 23245,
  "concerned": 4986,
  "\u207a": 1544,
  "jordan": 5207,
  "sho": 26822,
  "##feit": 21156,
  "damaged": 5591,
  "##\u7537": 30438,
  "mumbled": 11567,
  "##33": 22394,
  "##aran": 20486,
  "mccoy": 16075,
  "##music": 27275,
  "forgive": 9641,
  "naia": 29511,
  "afterwards": 5728,
  "gym": 9726,
  "dakota": 7734,
  "handicapped": 26920,
  "successes": 14152,
  "##away": 9497,
  "displayed": 6913,
  "oman": 16640,
  "mutations": 14494,
  "68": 6273,
  "leiden": 20329,
  "kylie": 9008,
  "essential": 6827,
  "1739": 25801,
  "390": 20024,
  "dye": 18554,
  "##nem": 25832,
  "##tius": 22638,
  "municipal": 4546,
  "##orescence": 20030,
  "armagh": 24678,
  "soldier": 5268,
  "wax": 13844,
  "sizes": 10826,
  "vortex": 23463,
  "civilized": 25825,
  "priesthood": 17911,
  "glorious": 14013,
  "malay": 12605,
  "##cia": 7405,
  "stemming": 29217,
  "node": 13045,
  "shore": 5370,
  "petite": 20146,
  "##ifer": 23780,
  "formed": 2719,
  "##ova": 7103,
  "historia": 19891,
  "##owa": 21293,
  "barrett": 12712,
  "checks": 14148,
  "manner": 5450,
  "##\u961d": 30496,
  "scandal": 9446,
  "defined": 4225,
  "##tsa": 27110,
  "shoots": 11758,
  "riga": 17557,
  "adoption": 9886,
  "alice": 5650,
  "anterior": 15099,
  "echoed": 10187,
  "noir": 15587,
  "tube": 7270,
  "##ther": 12399,
  "##sell": 23836,
  "bandit": 25334,
  "jays": 18930,
  "administer": 21497,
  "[unused567]": 572,
  "carrie": 13223,
  "strip": 6167,
  "##train": 23654,
  "sciences": 4163,
  "dispose": 27764,
  "##\u028e": 29701,
  "democrat": 7672,
  "##\u2248": 30133,
  "##umatic": 25360,
  "washed": 8871,
  "##wall": 9628,
  "poison": 9947,
  "pilasters": 26752,
  "hopes": 8069,
  "[unused688]": 693,
  "modulation": 25502,
  "sims": 18135,
  "willoughby": 24919,
  "resident": 6319,
  "milton": 9660,
  "academic": 3834,
  "implementation": 7375,
  "0": 1014,
  "boat": 4049,
  "proto": 15053,
  "1835": 10150,
  "flight": 3462,
  "12th": 5940,
  "distinguished": 5182,
  "sweetie": 22872,
  "reaction": 4668,
  "thanks": 4283,
  "andres": 15614,
  "##gers": 15776,
  "interrupted": 7153,
  "[unused701]": 706,
  "vocal": 5554,
  "hooves": 28399,
  "hope": 3246,
  "[unused402]": 407,
  "nodes": 14164,
  "stated": 3090,
  "zoning": 27462,
  "gangster": 20067,
  "hostess": 22566,
  "demons": 7942,
  "##cker": 9102,
  "plotting": 20699,
  "newest": 14751,
  "##kis": 14270,
  "doctorate": 8972,
  "elaborate": 9603,
  "reconstruction": 8735,
  "us": 2149,
  "canteen": 26449,
  "arizona": 5334,
  "sense": 3168,
  "catalog": 12105,
  "##\u65b9": 30389,
  "one": 2028,
  "royalty": 16664,
  "##tung": 21847,
  "paige": 17031,
  "repeated": 5567,
  "startling": 19828,
  "tunnels": 10633,
  "responded": 5838,
  "##ays": 22916,
  "##dson": 25112,
  "##frid": 27439,
  "##rence": 24413,
  "desperate": 7143,
  "retrieve": 12850,
  "coli": 27441,
  "mccain": 19186,
  "##lation": 13490,
  "##i": 2072,
  "##lum": 12942,
  "##eptive": 22048,
  "description": 6412,
  "viscount": 12182,
  "[unused955]": 960,
  "shepherd": 11133,
  "buzzed": 21377,
  "directing": 9855,
  "honorable": 13556,
  "pinned": 11807,
  "cabins": 20321,
  "spouse": 18591,
  "doctrines": 23252,
  "selection": 4989,
  "suggested": 4081,
  "enable": 9585,
  "belize": 18867,
  "greater": 3618,
  "anarchy": 26395,
  "instruction": 7899,
  "diana": 8805,
  "\u90ce": 1958,
  "mechanic": 15893,
  "funk": 11962,
  "tending": 25069,
  "lan": 17595,
  "gesturing": 22317,
  "overseas": 6931,
  "fein": 27132,
  "herds": 28822,
  "liver": 11290,
  "##door": 23835,
  "backyard": 16125,
  "ascension": 18071,
  "politely": 16954,
  "kate": 5736,
  "satire": 18312,
  "beside": 3875,
  "[unused723]": 728,
  "[unused619]": 624,
  "hadn": 2910,
  "mb": 16914,
  "loaded": 8209,
  "fulfillment": 29362,
  "indicative": 24668,
  "museums": 9941,
  "##ele": 12260,
  "##iot": 25185,
  "exemplified": 28593,
  "greenish": 23753,
  "##nza": 16786,
  "##ery": 7301,
  "boardwalk": 29496,
  "doubt": 4797,
  "hysteria": 29004,
  "207": 19843,
  "bed": 2793,
  "categories": 7236,
  "[unused331]": 336,
  "strange": 4326,
  "bitterness": 22364,
  "##one": 5643,
  "##ease": 19500,
  "##bu": 8569,
  "rim": 11418,
  "saxony": 13019,
  "challenged": 8315,
  "barron": 23594,
  "farming": 7876,
  "##grating": 28183,
  "diving": 9404,
  "televised": 13762,
  "##wise": 14244,
  "carefully": 5362,
  "##hearted": 27693,
  "shortlisted": 21353,
  "jen": 15419,
  "##eur": 11236,
  "belgian": 6995,
  "##ked": 8126,
  "##\u207a": 12744,
  "arose": 10375,
  "guyana": 18786,
  "merritt": 26701,
  "except": 3272,
  "zac": 29250,
  "harley": 13653,
  "##val": 10175,
  "warwick": 13283,
  "sealed": 10203,
  "uprising": 10138,
  "##\u793a": 30449,
  "considerably": 9839,
  "##\u7ae0": 30458,
  "demonstration": 10467,
  "gan": 25957,
  "495": 29302,
  "##\u09a4": 29898,
  "820": 26667,
  "[unused274]": 279,
  "particles": 9309,
  "lordship": 20698,
  "##caster": 25490,
  "1926": 4881,
  "##ugh": 8953,
  "communion": 15661,
  "dialed": 21300,
  "##position": 26994,
  "##\u2081": 11871,
  "otter": 22279,
  "102": 9402,
  "amplitude": 22261,
  "1": 1015,
  "##kind": 18824,
  "##fast": 24333,
  "lift": 6336,
  "wipe": 13387,
  "\u00a32": 21853,
  "breed": 8843,
  "fashion": 4827,
  "humanity": 8438,
  "equilibrium": 14442,
  "heiress": 20020,
  "cheated": 22673,
  "stirring": 18385,
  "anthropology": 12795,
  "antibody": 27781,
  "##vington": 21827,
  "duo": 6829,
  "gunners": 29000,
  "hms": 7220,
  "squirrel": 18197,
  "became": 2150,
  "##held": 24850,
  "letterman": 26593,
  "fog": 9666,
  "portraying": 17274,
  "##top": 14399,
  "addition": 2804,
  "powerless": 25192,
  "##\u0283": 29696,
  "someone": 2619,
  "communities": 4279,
  "##glass": 15621,
  "##oy": 6977,
  "bangladeshi": 24267,
  "##ica": 5555,
  "##\u0989": 29886,
  "sunday": 4465,
  "nazi": 6394,
  "creepy": 17109,
  "perched": 17335,
  "vaulted": 24616,
  "glaciers": 21193,
  "##par": 19362,
  "##cut": 12690,
  "##tone": 5524,
  "progression": 14967,
  "##58": 27814,
  "##screen": 18182,
  "##\u00bc": 29664,
  "enjoyed": 5632,
  "examines": 20798,
  "tapped": 10410,
  "kids": 4268,
  "assists": 8456,
  "essen": 29032,
  "partisan": 14254,
  "selma": 28112,
  "[unused49]": 50,
  "libyan": 19232,
  "york": 2259,
  "deposit": 12816,
  "limitations": 12546,
  "package": 7427,
  "invaders": 17347,
  "[unused734]": 739,
  "cooled": 12981,
  "##ivated": 21967,
  "[unused488]": 493,
  "pianos": 27864,
  "ammunition": 9290,
  "heading": 5825,
  "nations": 3741,
  "pipe": 8667,
  "pressed": 4508,
  "lublin": 18967,
  "slashed": 23587,
  "##aan": 14634,
  "close": 2485,
  "##swell": 19228,
  "jasmine": 14032,
  "##rse": 22573,
  "##swick": 27720,
  "\u0629": 1272,
  "##eries": 28077,
  "princess": 4615,
  "iteration": 27758,
  "1755": 21417,
  "iced": 28248,
  "nonlinear": 27400,
  "##lia": 6632,
  "specific": 3563,
  "##vius": 26055,
  "##sun": 19729,
  "##cade": 21869,
  "##tions": 9285,
  "##\u2660": 30150,
  "brethren": 17937,
  "schooner": 21567,
  "townsend": 16139,
  "##scopic": 24895,
  "##meyer": 24344,
  "epic": 8680,
  "\u5b9a": 1822,
  "pained": 22295,
  "rendition": 19187,
  "##\u2116": 30106,
  "corresponds": 14788,
  "##isches": 27239,
  "##cho": 9905,
  "##hl": 7317,
  "slavic": 13838,
  "lori": 18669,
  "gaston": 18572,
  "##feng": 24383,
  "finnish": 6983,
  "bone": 5923,
  "sin": 8254,
  "##borg": 11755,
  "azure": 24296,
  "lama": 18832,
  "##ege": 24746,
  "##nous": 18674,
  "##olved": 16116,
  "uhf": 20131,
  "ptolemy": 23517,
  "##yan": 7054,
  "upgrade": 12200,
  "sparse": 20288,
  "earnings": 16565,
  "lighted": 26390,
  "[unused555]": 560,
  "stretching": 10917,
  "warden": 13745,
  "password": 20786,
  "va": 12436,
  "his": 2010,
  "1934": 4579,
  "civic": 8388,
  "greyhound": 21220,
  "mast": 15429,
  "spot": 3962,
  "beth": 7014,
  "##`": 29639,
  "handwriting": 24149,
  "1995": 2786,
  "lashed": 25694,
  "##\u8c37": 30477,
  "majesty": 9995,
  "perceptions": 23271,
  "thick": 4317,
  "forget": 5293,
  "norton": 10770,
  "reportedly": 7283,
  "consent": 9619,
  "manitoba": 10512,
  "\u0252": 1111,
  "##ital": 18400,
  "##tors": 6591,
  "[unused91]": 92,
  "nguyen": 16577,
  "theoretically": 22634,
  "invite": 13260,
  "##iography": 26535,
  "exotic": 12564,
  "eisenhower": 16551,
  "lennon": 14294,
  "numb": 15903,
  "shah": 7890,
  "thessaloniki": 23162,
  "concerning": 7175,
  "takeover": 15336,
  "spec": 28699,
  "donaldson": 23164,
  "mystical": 17529,
  "hamlets": 21631,
  "cakes": 22619,
  "nascar": 11838,
  "angels": 7048,
  "occurs": 5158,
  "##shot": 19040,
  "doorway": 7086,
  "##ulator": 20350,
  "##\u30ca": 30241,
  "disorders": 10840,
  "propulsion": 16404,
  "stairway": 21952,
  "\u5c71": 1831,
  "hawkins": 13835,
  "1100": 22096,
  "[unused810]": 815,
  "stocked": 24802,
  "camouflage": 21356,
  "hussain": 20093,
  "##cci": 14693,
  "##osh": 17369,
  "[unused937]": 942,
  "##st": 3367,
  "library": 3075,
  "##lved": 26832,
  "##gra": 17643,
  "1728": 26833,
  "##nad": 25389,
  "##sto": 16033,
  "kilometer": 20595,
  "relaunched": 26391,
  "sort": 4066,
  "##urance": 25863,
  "opposing": 10078,
  "congo": 9030,
  "stockport": 26284,
  "##\u0127": 29672,
  "reasoning": 13384,
  "blazers": 28513,
  "ghosts": 11277,
  "immensely": 24256,
  "elisa": 29490,
  "##estra": 26199,
  "guadalajara": 22887,
  "97": 5989,
  "firefighters": 21767,
  "realism": 15650,
  "actresses": 19910,
  "riot": 11421,
  "sleeping": 5777,
  "toxicity": 22423,
  "organize": 10939,
  "\u0627": 1270,
  "\u0628": 1271,
  "schooling": 14118,
  "whom": 3183,
  "\u6210": 1854,
  "subject": 3395,
  "##landa": 24448,
  "latin": 3763,
  "ligand": 27854,
  "moisture": 14098,
  "unspecified": 25851,
  "removal": 8208,
  "zimbabwe": 11399,
  "carpenter": 10533,
  "pulls": 8005,
  "03": 6021,
  "felony": 24648,
  "fossils": 11954,
  "precise": 10480,
  "hog": 27589,
  "fledged": 26712,
  "emphasis": 7902,
  "##brick": 25646,
  "180": 8380,
  "[unused373]": 378,
  "\u5409": 1793,
  "1900s": 16430,
  "\u0251": 1110,
  "boris": 11235,
  "precious": 9062,
  "unemployment": 12163,
  "unknown": 4242,
  "compensated": 29258,
  "ix": 11814,
  "suffer": 9015,
  "euro": 9944,
  "\u5c1a": 1830,
  "ceiling": 5894,
  "inning": 12994,
  "invitation": 8468,
  "builder": 12508,
  "musicians": 5389,
  "british": 2329,
  "alex": 4074,
  "##ical": 7476,
  "sega": 16562,
  "##yang": 12198,
  "understand": 3305,
  "##\u0632": 29823,
  "walters": 19097,
  "mural": 15533,
  "strait": 11195,
  "##enstein": 21819,
  "##laus": 28128,
  "cartoonist": 19659,
  "hygiene": 19548,
  "[unused97]": 98,
  "##hiti": 27798,
  "##tania": 21013,
  "awesome": 12476,
  "beverly": 12218,
  "hazy": 26710,
  "initiatives": 11107,
  "mountains": 4020,
  "aarhus": 29173,
  "##wat": 24281,
  "keyboardist": 20173,
  "##\u2090": 30089,
  "dar": 18243,
  "maternal": 11062,
  "newbury": 29457,
  "##tus": 5809,
  "perennial": 14638,
  "depleted": 22595,
  "reactors": 22223,
  "475": 28245,
  "##ag": 8490,
  "##uil": 19231,
  "tack": 26997,
  "springsteen": 26002,
  "rourke": 24400,
  "##rde": 25547,
  "bothering": 17067,
  "overheard": 20443,
  "prequel": 28280,
  "positive": 3893,
  "valkyrie": 26696,
  "##zz": 13213,
  "hr": 17850,
  "improvements": 8377,
  "stroke": 6909,
  "patel": 20455,
  "##arian": 12199,
  "exhibiting": 22922,
  "delicately": 28814,
  "gloucestershire": 15905,
  "gillespie": 21067,
  "munitions": 21061,
  "fist": 7345,
  "receiving": 4909,
  "florence": 7701,
  "regulate": 15176,
  "ambushed": 22168,
  "salazar": 25315,
  "##la": 2721,
  "traveled": 6158,
  "supernatural": 11189,
  "warn": 11582,
  "disposed": 21866,
  "meaningless": 25120,
  "mar": 9388,
  "inviting": 15085,
  "history": 2381,
  "shady": 22824,
  "losses": 6409,
  "filmfare": 25648,
  "charlton": 17821,
  "##oman": 20778,
  "screens": 12117,
  "socially": 14286,
  "root": 7117,
  "weir": 16658,
  "flush": 13862,
  "2016": 2355,
  "##vot": 22994,
  "rounded": 8352,
  "vicious": 13925,
  "noses": 27518,
  "classmates": 19846,
  "disposal": 13148,
  "##strom": 15687,
  "##not": 17048,
  "feelings": 5346,
  "mendes": 27916,
  "horsemen": 25431,
  "induced": 10572,
  "delaying": 29391,
  "knives": 13227,
  "bravo": 17562,
  "##\u30ad": 30227,
  "ringo": 25589,
  "decade": 5476,
  "advocate": 8175,
  "completing": 7678,
  "miniature": 12973,
  "tumbled": 18303,
  "outrageous": 25506,
  "prescription": 20422,
  "##finder": 23695,
  "henrietta": 20775,
  "##lag": 17802,
  "team": 2136,
  "nightly": 22390,
  "truss": 24224,
  "4000": 20143,
  "##\u0927": 29862,
  "1987": 3055,
  "batsman": 13953,
  "##do": 3527,
  "landslide": 20148,
  "tasked": 13487,
  "snapped": 5941,
  "1815": 10679,
  "lesley": 23920,
  "flower": 6546,
  "florian": 29517,
  "momentum": 11071,
  "70": 3963,
  "##mare": 24376,
  "##\u5bb6": 30351,
  "weighted": 18215,
  "billie": 18210,
  "plants": 4264,
  "##sol": 19454,
  "moldova": 16772,
  "overlook": 27590,
  "##\u590f": 30334,
  "2010": 2230,
  "ellie": 10707,
  "ict": 25891,
  "258": 24398,
  "##raz": 20409,
  "flew": 5520,
  "midst": 12930,
  "##ant": 4630,
  "##llus": 20159,
  "1786": 17436,
  "galerie": 17941,
  "sanctuary": 8493,
  "bits": 9017,
  "settled": 3876,
  "214": 19936,
  "snowfall": 26043,
  "{": 1063,
  "##eft": 29218,
  "##mage": 26860,
  "##tian": 10772,
  "##coat": 16531,
  "chimneys": 28885,
  "snort": 26759,
  "##jure": 25243,
  "1570": 28881,
  "##era": 6906,
  "polymer": 17782,
  "lifetime": 6480,
  "robbed": 20114,
  "abusive": 20676,
  "49": 4749,
  "wished": 6257,
  "derive": 18547,
  "lamps": 14186,
  "genoa": 15771,
  "relatively": 4659,
  "protest": 6186,
  "exclude": 23329,
  "choi": 18151,
  "##ouin": 25058,
  "875": 27658,
  "scaling": 25169,
  "##lining": 16992,
  "murdered": 7129,
  "lips": 2970,
  "hodgson": 26107,
  "##stic": 10074,
  "commuted": 26704,
  "spartan": 20670,
  "cecilia": 18459,
  "african": 3060,
  "bosnia": 9562,
  "gaines": 28645,
  "preparatory": 13485,
  "institutions": 4896,
  "swallowing": 18468,
  "mons": 29408,
  "##lch": 29358,
  "ambient": 17093,
  "indiana": 5242,
  "physiology": 16127,
  "wicket": 12937,
  "incomes": 29373,
  "shutting": 17521,
  "oz": 11472,
  "flourishing": 29571,
  "yankees": 11081,
  "treacherous": 26648,
  "stylistic": 24828,
  "assumed": 5071,
  "unaffected": 24720,
  "lush": 16299,
  "procedural": 24508,
  "33": 3943,
  "##rti": 28228,
  "##ono": 17175,
  "marek": 29318,
  "respiratory": 16464,
  "alike": 11455,
  "impromptu": 29213,
  "values": 5300,
  "ruiz": 18773,
  "recycling": 17874,
  "126": 14010,
  "rein": 27788,
  "##cence": 29320,
  "coward": 16592,
  "be": 2022,
  "arrival": 5508,
  "regard": 7634,
  "magnate": 27470,
  "##uen": 24997,
  "baking": 21522,
  "294": 28135,
  "\u5948": 1814,
  "##jhl": 29001,
  "##rred": 20529,
  "newt": 25597,
  "allen": 5297,
  "assassinated": 16370,
  "reinforce": 19444,
  "wound": 6357,
  "oro": 20298,
  "medieval": 5781,
  "cheer": 15138,
  "chase": 5252,
  "republic": 3072,
  "writings": 7896,
  "##lock": 7878,
  "marxist": 15511,
  "horror": 5469,
  "formulation": 20219,
  "savage": 9576,
  "september": 2244,
  "enforced": 16348,
  "512": 24406,
  "##ski": 5488,
  "fur": 6519,
  "[unused395]": 400,
  "bile": 23974,
  "biographer": 17121,
  "congress": 3519,
  "##lson": 14881,
  "32nd": 20628,
  "\u5341": 1783,
  "deportation": 23702,
  "##\u0982": 29882,
  "hopper": 20517,
  "growl": 13349,
  "##dha": 17516,
  "faust": 24021,
  "iran": 4238,
  "137": 14989,
  "##ang": 5654,
  "##mable": 24088,
  "salute": 17664,
  "##ncy": 9407,
  "stones": 6386,
  "##aith": 22465,
  "environmentally": 25262,
  "lane": 4644,
  "pierce": 9267,
  "odor": 19255,
  "unsuccessfully": 11551,
  "violation": 11371,
  "frown": 11330,
  "migrant": 20731,
  "##dez": 24601,
  "author": 3166,
  "philippines": 5137,
  "##ference": 25523,
  "crisis": 5325,
  "archeological": 23005,
  "barbara": 6437,
  "simply": 3432,
  "miguel": 8374,
  "[unused885]": 890,
  "russian": 2845,
  "bedfordshire": 28430,
  "carry": 4287,
  "hydro": 18479,
  "##\u7248": 30433,
  "receptions": 16466,
  "substantive": 27737,
  "##bered": 22408,
  "banjo": 16698,
  "electrons": 15057,
  "titans": 13785,
  "##fold": 10371,
  "ucla": 12389,
  "instrumental": 6150,
  "##hope": 26441,
  "bermuda": 13525,
  "ink": 10710,
  "ts": 24529,
  "girlfriends": 27408,
  "chorus": 7165,
  "apostles": 19178,
  "guise": 21980,
  "hem": 19610,
  "returning": 4192,
  "electronically": 28926,
  "carolina": 3792,
  "ab": 11113,
  "debates": 14379,
  "cardinals": 9310,
  "drafting": 21168,
  "zones": 10019,
  "unnatural": 21242,
  "##thy": 16921,
  "daze": 28918,
  "naming": 10324,
  "colloquially": 23992,
  "bacteria": 10327,
  "app": 10439,
  "affecting": 12473,
  "counselor": 17220,
  "##\u03b6": 29724,
  "##iq": 18515,
  "dublin": 5772,
  "proceedings": 8931,
  "column": 5930,
  "mari": 16266,
  "declares": 18806,
  "wagner": 10304,
  "embrace": 9979,
  "route": 2799,
  "unnamed": 13294,
  "recovered": 6757,
  "dorsey": 27332,
  "words": 2616,
  "ended": 3092,
  "isa": 18061,
  "inspection": 10569,
  "\u0937": 1337,
  "mellon": 22181,
  "taluk": 23140,
  "votes": 4494,
  "buckled": 26368,
  "contradiction": 26917,
  "wilkins": 22745,
  "remainder": 6893,
  "lively": 17133,
  "flowers": 4870,
  "secure": 5851,
  "1651": 29077,
  "filmmaker": 12127,
  "wide": 2898,
  "\u30ca": 1715,
  "coastal": 5780,
  "ball": 3608,
  "guangdong": 21287,
  "[unused245]": 250,
  "jammu": 21433,
  "hence": 6516,
  "northamptonshire": 21367,
  "torino": 24737,
  "progresses": 22901,
  "yuan": 11237,
  "combines": 13585,
  "[unused777]": 782,
  "[unused871]": 876,
  "suns": 19352,
  "musique": 25784,
  "aidan": 12643,
  "rosario": 17496,
  "thinks": 6732,
  "pounded": 13750,
  "panting": 15601,
  "richardson": 9482,
  "##worth": 5172,
  "disused": 26958,
  "hopped": 17230,
  "il": 6335,
  "transverse": 18323,
  "locate": 12453,
  "timeless": 27768,
  "disliked": 18966,
  "snow": 4586,
  "kinda": 17704,
  "clyde": 12085,
  "on": 2006,
  "tile": 14090,
  "tumble": 28388,
  "bulky": 27446,
  "subfamily": 10946,
  "une": 16655,
  "crossover": 16335,
  "dropped": 3333,
  "##ught": 18533,
  "[unused207]": 212,
  "lamb": 12559,
  "withdraw": 10632,
  "collection": 3074,
  "diane": 12082,
  "marines": 9622,
  "enzymes": 16285,
  "##fan": 15143,
  "bundle": 14012,
  "nu": 16371,
  "exact": 6635,
  "glare": 10982,
  "880": 26839,
  "whitehall": 28361,
  "flat": 4257,
  "transmitted": 11860,
  "devotion": 13347,
  "dauphin": 29102,
  "[unused250]": 255,
  "choose": 5454,
  "aux": 19554,
  "jumped": 5598,
  "marc": 7871,
  "chevy": 29009,
  "multimedia": 14959,
  "[unused911]": 916,
  "exercise": 6912,
  "scenarios": 16820,
  "tesla": 26060,
  "villagers": 11904,
  "voyages": 21993,
  "clearer": 24509,
  "contributor": 12130,
  "brigham": 22727,
  "soared": 29127,
  "venezuelan": 15332,
  "medicinal": 20632,
  "landscapes": 12793,
  "connection": 4434,
  "##&": 29617,
  "substituted": 17316,
  "##idon": 28201,
  "ankles": 15392,
  "administrative": 3831,
  "seismic": 22630,
  "convicts": 24948,
  "circumstance": 25652,
  "sustainable": 9084,
  "pledge": 16393,
  "[unused843]": 848,
  "millennium": 10144,
  "##yam": 14852,
  "polling": 17888,
  "##witz": 15362,
  "passive": 13135,
  "activities": 3450,
  "promoted": 3755,
  "amos": 13744,
  "\u2227": 1602,
  "theorem": 9872,
  "ruth": 7920,
  "misery": 14624,
  "##ience": 13684,
  "endured": 16753,
  "originals": 23728,
  "transitioned": 23946,
  "solitude": 22560,
  "##ain": 8113,
  "nighttime": 26031,
  "lsu": 21849,
  "thankful": 18836,
  "similarity": 14402,
  "drummer": 7101,
  "administered": 8564,
  "conversely": 18868,
  "expected": 3517,
  "resorts": 16511,
  "solitary": 14348,
  "itf": 27682,
  "leger": 26523,
  "affection": 12242,
  "infinity": 15579,
  "rosa": 9508,
  "hooked": 13322,
  "hostage": 13446,
  "\u110e": 1465,
  "uae": 17641,
  "journalism": 8083,
  "nightstand": 23135,
  "1776": 13963,
  "##hardt": 13778,
  "1644": 23477,
  "rig": 19838,
  "oswald": 17411,
  "chased": 13303,
  "viewed": 7021,
  "abdomen": 13878,
  "steele": 12872,
  "talks": 7566,
  "darlington": 19667,
  "supervise": 28589,
  "challenges": 7860,
  "##runa": 26605,
  "joaquin": 16877,
  "##rle": 20927,
  "##200": 28332,
  "repetitive": 23563,
  "mortar": 14335,
  "gasps": 23813,
  "heart": 2540,
  "amazed": 15261,
  "barges": 27712,
  "##\u02bf": 29714,
  "28": 2654,
  "fuse": 19976,
  "##ct": 6593,
  "choreographed": 23317,
  "##unciation": 24101,
  "gothic": 7788,
  "graham": 5846,
  "##\u266d": 24102,
  "\u1d62": 1507,
  "nixon": 11296,
  "gate": 4796,
  "owned": 3079,
  "earthly": 29520,
  "buildings": 3121,
  "dorothy": 9984,
  "resting": 8345,
  "##lux": 25148,
  "1769": 20663,
  "akron": 22735,
  "woken": 22795,
  "babylonian": 26990,
  "brig": 16908,
  "lot": 2843,
  "flinch": 23224,
  "[unused642]": 647,
  "surfaces": 9972,
  "##irus": 26013,
  "didn": 2134,
  "analogous": 19639,
  "##\u044b": 29113,
  "bulldogs": 15120,
  "employs": 13495,
  "narrative": 7984,
  "preschool": 23655,
  "luciano": 24512,
  "tighten": 21245,
  "trailers": 21389,
  "resurgence": 26303,
  "exploited": 18516,
  "##ality": 23732,
  "flows": 6223,
  "vertigo": 28246,
  "frames": 11048,
  "\u208a": 1557,
  "stars": 3340,
  "sadie": 21330,
  "swim": 9880,
  "idols": 24438,
  "[unused649]": 654,
  "##fu": 11263,
  "issues": 3314,
  "jurisdictions": 17370,
  "##\u0438\u0438": 15414,
  "##otti": 21325,
  "402": 28048,
  "pakistan": 4501,
  "gauge": 7633,
  "##yen": 20684,
  "1887": 6837,
  "timer": 25309,
  "##moto": 15319,
  "sergei": 14543,
  "269": 25717,
  "##\u043f": 29746,
  "178": 19289,
  "sky": 3712,
  "##mounted": 27632,
  "marcos": 14810,
  "viaduct": 20596,
  "observer": 9718,
  "lola": 15137,
  "##nca": 20909,
  "##lah": 14431,
  "##sa": 3736,
  "wharton": 24249,
  "lakshmi": 21352,
  "supper": 15264,
  "[unused880]": 885,
  "attackers": 17857,
  "ballet": 7250,
  "##erence": 20935,
  "##kas": 13716,
  "1989": 2960,
  "##52": 25746,
  "distal": 29333,
  "\u306b": 1668,
  "1983": 3172,
  "aura": 15240,
  "funny": 6057,
  "rafe": 15819,
  "##oons": 27174,
  "##etta": 16549,
  "chevrolet": 14724,
  "dame": 8214,
  "blake": 6511,
  "defender": 8291,
  "##note": 22074,
  "destroyer": 9799,
  "specifically": 4919,
  "##ship": 9650,
  "loire": 20399,
  "encompass": 25281,
  "thyroid": 29610,
  "madam": 21658,
  "insufficient": 13990,
  "circling": 18519,
  "##gr": 16523,
  "advisory": 7319,
  "metabolism": 18089,
  "scenic": 12916,
  "##pg": 26952,
  "##oot": 17206,
  "##firmed": 23141,
  "##75": 23352,
  "[unused886]": 891,
  "widows": 24835,
  "[unused736]": 741,
  "##aghan": 26685,
  "freshly": 20229,
  "commonwealth": 5663,
  "expressive": 22570,
  "archibald": 15917,
  "multi": 4800,
  "fling": 27655,
  "public": 2270,
  "poked": 16826,
  "##iga": 13340,
  "landed": 5565,
  "cinematic": 21014,
  "\u7530": 1911,
  "ale": 15669,
  "bail": 15358,
  "chancel": 16482,
  "prehistoric": 14491,
  "\u5e7f": 1842,
  "tense": 9049,
  "morton": 11164,
  "trends": 12878,
  "confident": 9657,
  "neat": 15708,
  "##ith": 8939,
  "proceeded": 8979,
  "##urgent": 27176,
  "persecution": 14522,
  "roller": 11220,
  "euros": 19329,
  "herself": 2841,
  "ignorant": 21591,
  "2014": 2297,
  "vibrant": 17026,
  "condemned": 10033,
  "loyal": 8884,
  "spokane": 21878,
  "ebony": 27680,
  "##uru": 14129,
  "ha": 5292,
  "peruvian": 15432,
  "woods": 5249,
  "##nda": 8943,
  "##41": 23632,
  "1679": 27924,
  "[unused527]": 532,
  "susie": 23917,
  "archaeologist": 18821,
  "gamma": 13091,
  "chess": 7433,
  "shaved": 20665,
  "helpless": 13346,
  "broad": 5041,
  "##udence": 29424,
  "killed": 2730,
  "lana": 16554,
  "belinda": 24574,
  "##dim": 22172,
  "obeyed": 22665,
  "##eva": 13331,
  "prentice": 23429,
  "promotion": 4712,
  "##sey": 7952,
  "herrera": 23527,
  "beating": 6012,
  "##iner": 26455,
  "build": 3857,
  "points": 2685,
  "trams": 19216,
  "4": 1018,
  "standalone": 26609,
  "##tsk": 29064,
  "kepler": 28219,
  "rye": 20926,
  "ron": 6902,
  "aw": 22091,
  "simple": 3722,
  "concussion": 23159,
  "dade": 27647,
  "salvage": 18340,
  "haggard": 27912,
  "ce": 8292,
  "customary": 16120,
  "acres": 4631,
  "road": 2346,
  "friend": 2767,
  "412": 25873,
  "profoundly": 28089,
  "##icides": 22698,
  "daughter": 2684,
  "steam": 5492,
  "80": 3770,
  "als": 25520,
  "[unused185]": 190,
  "judas": 25326,
  "overseen": 22485,
  "wreckage": 21056,
  "\u674e": 1877,
  "ohio": 4058,
  "poorer": 27196,
  "acting": 3772,
  "germany": 2762,
  "pitched": 8219,
  "ship": 2911,
  "dockyard": 24874,
  "##tangle": 23395,
  "##ree": 9910,
  "mainland": 8240,
  "##dent": 16454,
  "mathematical": 8045,
  "shaft": 9093,
  "cbe": 15852,
  "forbes": 10822,
  "object": 4874,
  "rains": 15811,
  "##\u0d9a": 29939,
  "clearing": 8430,
  "chants": 29534,
  "grey": 4462,
  "\u4ebb": 1757,
  "advantage": 5056,
  "lorenzo": 12484,
  "discharged": 14374,
  "##ifice": 23664,
  "400": 4278,
  "goa": 15244,
  "##recht": 28109,
  "glee": 18874,
  "regulators": 25644,
  "directional": 20396,
  "floors": 8158,
  "brow": 8306,
  "overture": 25052,
  "lobbied": 26421,
  "transformers": 19081,
  "##ivo": 20984,
  "protestant": 8330,
  "specials": 19247,
  "sigismund": 26748,
  "obviously": 5525,
  "panted": 28149,
  "male": 3287,
  "sculptors": 28417,
  "sinclair": 11881,
  "##written": 15773,
  "##\u0279": 29691,
  "##4": 2549,
  "mcqueen": 29265,
  "counsel": 9517,
  "##quet": 12647,
  "##cated": 12921,
  "prescott": 20719,
  "##oration": 21223,
  "transplant": 22291,
  "discovered": 3603,
  "equation": 8522,
  "##kee": 20553,
  "##\u05d1": 29789,
  "kali": 19924,
  "fiji": 11464,
  "##\u2071": 30072,
  "131": 14677,
  "intersecting": 27294,
  "surreal": 16524,
  "astronomer": 15211,
  "##ometric": 28993,
  "##iculate": 24153,
  "illegally": 17800,
  "ip": 12997,
  "sunny": 11559,
  "##23": 21926,
  "##bee": 11306,
  "jo": 8183,
  "shine": 12342,
  "portico": 23104,
  "deny": 9772,
  "##oro": 14604,
  "leaps": 29195,
  "cmll": 25395,
  "##ois": 10054,
  "andover": 29463,
  "authorship": 26324,
  "bulb": 20581,
  "charged": 5338,
  "ducks": 14875,
  "influences": 8092,
  "intrinsic": 23807,
  "modules": 14184,
  "potential": 4022,
  "##eim": 12112,
  "##\u4eba": 30282,
  "\u0dc0": 1407,
  "peanuts": 27613,
  "uncle": 4470,
  "regatta": 26848,
  "moran": 17866,
  "ll": 2222,
  "law": 2375,
  "blossom": 20593,
  "constraint": 27142,
  "195": 17317,
  "spoon": 15642,
  "knotted": 27039,
  "pet": 9004,
  "reinforced": 11013,
  "hungry": 7501,
  "harmonic": 19452,
  "ferocious": 27863,
  "proud": 7098,
  "zu": 16950,
  "##bham": 25522,
  "distinctions": 25995,
  "straining": 21366,
  "reclaimed": 23119,
  "##ake": 13808,
  "rebel": 8443,
  "nickel": 15519,
  "phylogenetic": 23192,
  "wig": 24405,
  "##lho": 28061,
  "badminton": 14618,
  "concentration": 6693,
  "congregations": 16850,
  "darcy": 17685,
  "##sberg": 11711,
  "##laze": 24472,
  "##zak": 20685,
  "[unused210]": 215,
  "cramped": 22766,
  "flick": 17312,
  "kappa": 16000,
  "needy": 23927,
  "prospective": 17464,
  "pitcher": 8070,
  "leopold": 12752,
  "\u0926": 1325,
  "consequently": 8821,
  "romero": 18290,
  "tell": 2425,
  "##llet": 22592,
  "1842": 10008,
  "riff": 24808,
  "dobson": 27679,
  "abby": 9460,
  "viktor": 13489,
  "[unused836]": 841,
  "assam": 15181,
  "##yla": 23943,
  "hesse": 16399,
  "##3": 2509,
  "dub": 12931,
  "beforehand": 25828,
  "001": 25604,
  "1618": 29029,
  "obscure": 14485,
  "mermaid": 22322,
  "speakers": 7492,
  "encourages": 16171,
  "intention": 6808,
  "generate": 9699,
  "##grin": 24860,
  "boone": 15033,
  "ou": 15068,
  "##taka": 28412,
  "commando": 15054,
  "ensuing": 13831,
  "hollow": 8892,
  "\u0638": 1287,
  "regime": 6939,
  "contributed": 5201,
  "mixtape": 18713,
  "laser": 9138,
  "goofy": 27243,
  "kato": 27496,
  "nearby": 3518,
  "accordance": 10388,
  "classifications": 26739,
  "defunct": 11984,
  "backside": 25065,
  "barrage": 19359,
  "accuse": 26960,
  "humor": 8562,
  "investigated": 10847,
  "\u5929": 1811,
  "tbilisi": 22406,
  "##voking": 22776,
  "anxious": 11480,
  "pleasure": 5165,
  "elk": 18995,
  "portland": 6734,
  "setting": 4292,
  "##\u6f22": 30430,
  "muddy": 15405,
  "maud": 21696,
  "##\u0f44": 29963,
  "##af": 10354,
  "bland": 20857,
  "heron": 22914,
  "154": 16666,
  "renal": 25125,
  "caught": 3236,
  "fight": 2954,
  "##notes": 20564,
  "computed": 24806,
  "vargas": 20556,
  "prescribed": 16250,
  "\u963f": 1971,
  "papal": 12156,
  "sobbing": 20040,
  "confirms": 23283,
  "awe": 15180,
  "##tec": 26557,
  "souza": 26598,
  "refit": 27070,
  "##dance": 25514,
  "semiconductor": 20681,
  "bc": 4647,
  "1928": 4662,
  "##rod": 14127,
  "##dilly": 28832,
  "nacional": 10718,
  "creeping": 18266,
  "##\u68ee": 30408,
  "\u03be": 1168,
  "idf": 24011,
  "boo": 22017,
  "\u76f8": 1919,
  "dutton": 28784,
  "erebidae": 25875,
  "casa": 14124,
  "quartz": 20971,
  "overgrown": 26433,
  "protestants": 19592,
  "rendered": 10155,
  "upland": 25770,
  "backward": 8848,
  "##fest": 14081,
  "amenities": 19870,
  "offerings": 14927,
  "pere": 23976,
  "schemes": 11683,
  "warmer": 16676,
  "\u0630": 1279,
  "mls": 16287,
  "private": 2797,
  "unofficial": 11982,
  "hurled": 24025,
  "loomed": 24358,
  "convent": 10664,
  "exchanging": 25620,
  "sorbonne": 28452,
  "demonstrators": 28337,
  "hopping": 26397,
  "[unused858]": 863,
  "production": 2537,
  "xinjiang": 25904,
  "##llan": 19036,
  "crowd": 4306,
  "michelle": 9393,
  "\u3009": 1638,
  "##gil": 20142,
  "beatles": 11555,
  "daniel": 3817,
  "##esis": 19009,
  "grasses": 21620,
  "amusement": 9778,
  "autonomous": 8392,
  "bankrupt": 17482,
  "strife": 27865,
  "liechtenstein": 26500,
  "astro": 28625,
  "sasha": 14673,
  "##isman": 20257,
  "bunker": 15742,
  "[unused842]": 847,
  "punt": 18975,
  "diary": 9708,
  "apprentice": 13357,
  "toured": 7255,
  "##backs": 12221,
  "henrik": 18745,
  "##gas": 12617,
  "czech": 5569,
  "[unused258]": 263,
  "[unused538]": 543,
  "##rius": 13245,
  "bananas": 26191,
  "commonly": 4141,
  "ticket": 7281,
  "[unused389]": 394,
  "relief": 4335,
  "2nd": 3416,
  "musee": 18070,
  "scream": 6978,
  "homestead": 14473,
  "letter": 3661,
  "[unused651]": 656,
  "beam": 7504,
  "begging": 12858,
  "q": 1053,
  "swiss": 5364,
  "\u5fd7": 1851,
  "coefficients": 21374,
  "russell": 5735,
  "##cating": 18252,
  "52nd": 26898,
  "\u0997": 1355,
  "ancestry": 11377,
  "##ot": 4140,
  "render": 17552,
  "mechanisms": 10595,
  "front": 2392,
  "affirmed": 19768,
  "bangladesh": 7269,
  "hartman": 26766,
  "handled": 8971,
  "rub": 14548,
  "##liner": 20660,
  "##sg": 28745,
  "fra": 25312,
  "authority": 3691,
  "interpretations": 15931,
  "embassy": 8408,
  "##stad": 16917,
  "merge": 13590,
  "democratic": 3537,
  "##nagar": 14346,
  "##wana": 21761,
  "##sworth": 12255,
  "##ogen": 23924,
  "euclidean": 25826,
  "disappointed": 9364,
  "tucson": 17478,
  "using": 2478,
  "uber": 19169,
  "detail": 6987,
  "consideration": 9584,
  "champion": 3410,
  "shouldn": 5807,
  "motorized": 26172,
  "corporations": 11578,
  "##bet": 20915,
  "owens": 14824,
  "repay": 24565,
  "cary": 20533,
  "\u77f3": 1922,
  "costumes": 12703,
  "glen": 8904,
  "287": 23090,
  "218": 20741,
  "##shin": 17426,
  "astronomical": 13674,
  "groaning": 24781,
  "islamist": 27256,
  "improvisation": 24584,
  "vertices": 18984,
  "##andra": 29159,
  "examined": 8920,
  "##lde": 17920,
  "genres": 11541,
  "midwest": 13608,
  "tradition": 4535,
  "##asia": 15396,
  "assumptions": 17568,
  "deteriorated": 20111,
  "disrupted": 20275,
  "horn": 7109,
  "kelsey": 21004,
  "\u0430": 1180,
  "alleged": 6884,
  "beams": 13110,
  "reservations": 17829,
  "fever": 9016,
  "##\u00a7": 29650,
  "curtain": 11002,
  "##aha": 23278,
  "heightened": 21106,
  "visionary": 28036,
  "chateau": 11874,
  "71": 6390,
  "providence": 11293,
  "vested": 26003,
  "radiated": 23000,
  "1766": 21410,
  "##sum": 17421,
  "aforementioned": 17289,
  "hostile": 10420,
  "you": 2017,
  "together": 2362,
  "haji": 28174,
  "nerve": 9113,
  "skinny": 15629,
  "violating": 20084,
  "1751": 24440,
  "boycott": 17757,
  "parks": 6328,
  "fortunately": 14599,
  "richie": 14411,
  "johns": 11545,
  "##breaker": 21204,
  "holes": 8198,
  "[unused898]": 903,
  "##coll": 26895,
  "[unused967]": 972,
  "duty": 4611,
  "[unused730]": 735,
  "[unused347]": 352,
  "terrorism": 10130,
  "literally": 6719,
  "##\u96c4": 30500,
  "independence": 4336,
  "plainly": 24250,
  "hearth": 22885,
  "vacuum": 11641,
  "confirm": 12210,
  "duly": 25073,
  "geese": 28519,
  "chen": 8802,
  "##illy": 20577,
  "gillian": 22358,
  "[unused458]": 463,
  "precisely": 10785,
  "remix": 6136,
  "\u7248": 1907,
  "37th": 23027,
  "blasting": 26239,
  "negotiate": 13676,
  "bursts": 19239,
  "##by": 3762,
  "\uff1a": 1993,
  "##row": 10524,
  "sahara": 19604,
  "crawled": 12425,
  "apron": 20376,
  "drugged": 25483,
  "translated": 5421,
  "1999": 2639,
  "dorchester": 27252,
  "skeptical": 18386,
  "largest": 2922,
  "##ific": 18513,
  "236": 23593,
  "ornaments": 24005,
  "##ischen": 24488,
  "sexually": 12581,
  "undergoing": 14996,
  "demos": 18267,
  "##\u057e": 29782,
  "embarrassment": 14325,
  "forcing": 6932,
  "nets": 16996,
  "thence": 23166,
  "ammonia": 25874,
  "##io": 3695,
  "##yre": 16363,
  "genius": 11067,
  "1812": 9842,
  "norris": 15466,
  "##\u5f18": 30369,
  "springfield": 10493,
  "sweeney": 21178,
  "##my": 8029,
  "politician": 3761,
  "hodge": 23148,
  "appliances": 22449,
  "installations": 14111,
  "lore": 19544,
  "egg": 8288,
  "malone": 16321,
  "declaration": 8170,
  "##\u5c07": 30354,
  "integration": 8346,
  "senses": 9456,
  "lives": 3268,
  "spawned": 18379,
  "##las": 8523,
  "subcommittee": 18052,
  "mine": 3067,
  "arid": 17511,
  "realises": 25924,
  "[unused481]": 486,
  "spitfire": 28323,
  "##\u0452": 29758,
  "bahrain": 15195,
  "skin": 3096,
  "crafted": 19275,
  "tacoma": 22954,
  "temps": 29023,
  "##bel": 8671,
  "blending": 23293,
  "tome": 21269,
  "tired": 5458,
  "evolving": 20607,
  "##ajan": 28869,
  "##lifting": 26644,
  "shooting": 5008,
  "##yt": 22123,
  "slave": 6658,
  "##ett": 6582,
  "flawless": 27503,
  "owns": 8617,
  "##logue": 24277,
  "puebla": 27452,
  "##media": 16969,
  "69": 6353,
  "architect": 4944,
  "em": 7861,
  "hepburn": 22004,
  "flu": 19857,
  "makers": 11153,
  "anthem": 11971,
  "establish": 5323,
  "renumbered": 27855,
  "scouts": 10158,
  "##mie": 9856,
  "upbringing": 24615,
  "dangerous": 4795,
  "##cision": 28472,
  "##fia": 22749,
  "marion": 10115,
  "sporadic": 24590,
  "translator": 11403,
  "##weig": 27204,
  "##hong": 19991,
  "suburb": 7575,
  "[unused333]": 338,
  "demo": 9703,
  "mankind": 14938,
  "16th": 5767,
  "bladder": 24176,
  "headlines": 19377,
  "mundo": 25989,
  "appointments": 14651,
  "westphalia": 22952,
  "##rol": 13153,
  "marcel": 13389,
  "chow": 20209,
  "merlin": 15993,
  "chanting": 22417,
  "electrified": 18042,
  "##athi": 25457,
  "##nitz": 22792,
  "[unused868]": 873,
  "##hes": 15689,
  "\u0634": 1283,
  "taxpayers": 26457,
  "jenks": 15119,
  "##bek": 24597,
  "decorations": 14529,
  "jerry": 6128,
  "brace": 17180,
  "modes": 11583,
  "surfer": 27747,
  "emmanuel": 14459,
  "gurney": 25061,
  "##\u898b": 30474,
  "some": 2070,
  "brothel": 27308,
  "##ls": 4877,
  "accompanied": 5642,
  "asserted": 13647,
  "##\u5742": 30329,
  "dangling": 18737,
  "versus": 6431,
  "congressional": 7740,
  "physical": 3558,
  "rhode": 9763,
  "jillian": 27286,
  "##15": 16068,
  "feeds": 14172,
  "greet": 17021,
  "fei": 24664,
  "slip": 7540,
  "##rgen": 25892,
  "uruguay": 11724,
  "##dity": 25469,
  "bled": 23919,
  "carson": 9806,
  "comprising": 9605,
  "file": 5371,
  "seymour": 13254,
  "##farlane": 23511,
  "nightmares": 15446,
  "vamps": 24064,
  "archery": 21383,
  "ring": 3614,
  "careful": 6176,
  "##\u0561": 29766,
  "sarajevo": 18354,
  "##rsten": 19020,
  "knife": 5442,
  "shooter": 13108,
  "1792": 13414,
  "erwin": 22209,
  "mainz": 19876,
  "moffat": 28528,
  "zur": 17924,
  "predators": 12630,
  "##hh": 23644,
  "ethel": 19180,
  "##\u0634": 29825,
  "espana": 20678,
  "[unused541]": 546,
  "[unused920]": 925,
  "grotesque": 27707,
  "catalyst": 16771,
  "drain": 12475,
  "progressive": 6555,
  "serviced": 22858,
  "ernie": 14637,
  "boil": 26077,
  "graphical": 20477,
  "faithful": 11633,
  "whitney": 9809,
  "village": 2352,
  "nay": 29349,
  "dan": 4907,
  "workplace": 16165,
  "destruction": 6215,
  "had": 2018,
  "timetable": 23839,
  "dent": 21418,
  "\u533a": 1782,
  "biennial": 20313,
  "disagreement": 18185,
  "gripped": 9672,
  "jews": 5181,
  "purchases": 17402,
  "##dder": 20791,
  "creative": 5541,
  "commotion": 23960,
  "dod": 26489,
  "sudbury": 26487,
  "sisters": 5208,
  "styx": 21856,
  "##enary": 24553,
  "\u043b": 1190,
  "\u1d3a": 1494,
  "articles": 4790,
  "chefs": 27828,
  "photograph": 9982,
  "accumulation": 20299,
  "1955": 3982,
  "medicine": 4200,
  "royale": 24483,
  "##och": 11663,
  "prices": 7597,
  "hogan": 14851,
  "predicted": 10173,
  "noah": 7240,
  "antonio": 4980,
  "department": 2533,
  "reduce": 5547,
  "broken": 3714,
  "stud": 16054,
  "situ": 26179,
  "##\u1d47": 30033,
  "1867": 7517,
  "321": 24030,
  "hectares": 9076,
  "mor": 22822,
  "carving": 18441,
  "[unused797]": 802,
  "lazy": 13971,
  "vijay": 17027,
  "corruption": 7897,
  "court": 2457,
  "##schaft": 26527,
  "[unused753]": 758,
  "developing": 4975,
  "distracted": 11116,
  "fender": 19028,
  "bhutan": 18768,
  "garbage": 13044,
  "intelligent": 9414,
  "sicily": 12071,
  "##\u2033": 30067,
  "silesia": 21872,
  "jonah": 15617,
  "richest": 18429,
  "valve": 10764,
  "meantime": 12507,
  "suburban": 9282,
  "##raph": 24342,
  "##mini": 25300,
  "gorilla": 23526,
  "##\u0153": 29674,
  "pathology": 19314,
  "pistol": 8779,
  "##\u00b9": 27904,
  "newspaper": 3780,
  "mcintosh": 29052,
  "record": 2501,
  "allegiance": 14588,
  "##que": 4226,
  "##ament": 24996,
  "conceptual": 17158,
  "pill": 17357,
  "questionable": 21068,
  "##ser": 8043,
  "barcelona": 7623,
  "contrasts": 23347,
  "##dication": 25027,
  "##rf": 12881,
  "preservation": 8347,
  "10th": 6049,
  "[unused285]": 290,
  "destroy": 6033,
  "abbott": 14455,
  "##riam": 25557,
  "provost": 18523,
  "thom": 19438,
  "terrible": 6659,
  "[unused177]": 182,
  "##pool": 16869,
  "##bib": 28065,
  "illuminated": 14640,
  "recipient": 7799,
  "grounds": 5286,
  "haiti": 12867,
  "jamie": 6175,
  "respectively": 4414,
  "anglia": 24217,
  "vedic": 25824,
  "godzilla": 26631,
  "nostalgia": 26968,
  "stored": 8250,
  "[unused296]": 301,
  "rich": 4138,
  "fit": 4906,
  "elvis": 12280,
  "grossed": 17500,
  "pamphlets": 24752,
  "sesame": 23605,
  "npr": 21411,
  "lok": 13660,
  "pontifical": 22362,
  "dismounted": 29580,
  "antony": 16262,
  "crowe": 25657,
  "gamer": 27911,
  "probing": 28664,
  "willis": 12688,
  "[unused765]": 770,
  "abdul": 10298,
  "##chester": 25322,
  "hissed": 11402,
  "playhouse": 17408,
  "transformed": 8590,
  "lightweight": 12038,
  "\u00a6": 1072,
  "childhood": 5593,
  "hp": 6522,
  "norms": 17606,
  "engaged": 5117,
  "fishes": 21995,
  "sudan": 10411,
  "##lization": 22731,
  "##18": 15136,
  "##sher": 19603,
  "blocks": 5991,
  "depression": 6245,
  "##\u4e3b": 30273,
  "cn": 27166,
  "fanny": 17813,
  "folds": 15439,
  "rec": 28667,
  "##zyn": 23749,
  "1860s": 15914,
  "driver": 4062,
  "##\u79c0": 30454,
  "developers": 9797,
  "optimistic": 21931,
  "vito": 25550,
  "fleet": 4170,
  "veracruz": 23741,
  "##iated": 15070,
  "graeme": 21840,
  "1905": 5497,
  "##\u0917": 29853,
  "fulfilling": 21570,
  "grab": 6723,
  "motifs": 17366,
  "\u00b6": 1086,
  "martin": 3235,
  "##rization": 26910,
  "gives": 3957,
  "##kh": 10023,
  "##dine": 10672,
  "inlet": 15824,
  "mayer": 14687,
  "min": 8117,
  "ached": 15043,
  "ottoman": 6188,
  "oakley": 28876,
  "carnegie": 11298,
  "##\u044e": 29757,
  "league": 2223,
  "distribute": 16062,
  "baptised": 28798,
  "jia": 25871,
  "[unused705]": 710,
  "##hos": 15006,
  "black": 2304,
  "w": 1059,
  "appearing": 6037,
  "\uff0d": 1990,
  "##cius": 25393,
  "[unused492]": 497,
  "##bbies": 27982,
  "mock": 12934,
  "niche": 18111,
  "ornamental": 18200,
  "relocation": 18344,
  "flanks": 23547,
  "theirs": 17156,
  "ingram": 23231,
  "##tension": 29048,
  "schumacher": 22253,
  "national": 2120,
  "ipad": 25249,
  "##\u6c11": 30418,
  "##shaft": 25679,
  "claudia": 13479,
  "competition": 2971,
  "expanded": 4423,
  "swamp": 11963,
  "##sti": 16643,
  "story": 2466,
  "wireless": 9949,
  "hassan": 13222,
  "bjp": 24954,
  "paranoia": 27890,
  "periodically": 18043,
  "scented": 25738,
  "##cam": 28727,
  "kidd": 25358,
  "lured": 26673,
  "metre": 7924,
  "knit": 22404,
  "prank": 26418,
  "likelihood": 16593,
  "##rsk": 27472,
  "literary": 4706,
  "##cous": 27199,
  "recycled": 22207,
  "\u0dba": 1404,
  "existent": 25953,
  "[unused440]": 445,
  "##der": 4063,
  "draws": 9891,
  "phd": 8065,
  "\u53f2": 1790,
  "hackett": 28630,
  "rejoin": 25261,
  "##phones": 19093,
  "compassion": 15398,
  "smeared": 25400,
  "agricultural": 4910,
  "date": 3058,
  "higher": 3020,
  "##berman": 23991,
  "generally": 3227,
  "portion": 4664,
  "##com": 9006,
  "orbital": 13943,
  "\u30b3": 1704,
  "18": 2324,
  "sword": 4690,
  "1773": 19916,
  "commemorates": 25530,
  "dd": 20315,
  "##dak": 23597,
  "manipulating": 26242,
  "reversal": 23163,
  "cleansing": 26799,
  "plea": 14865,
  "[unused77]": 78,
  "attorney": 4905,
  "samples": 8168,
  "##dened": 24589,
  "lanka": 7252,
  "franks": 21310,
  "sulawesi": 29078,
  "##ulously": 21227,
  "##dation": 20207,
  "slant": 27474,
  "##rc": 11890,
  "tributary": 8914,
  "levy": 12767,
  "##ito": 9956,
  "1937": 4347,
  "castro": 11794,
  "##gnant": 27881,
  "bi": 12170,
  "##zie": 14272,
  "ethanol": 22886,
  "fletcher": 10589,
  "marriott": 26490,
  "##\u6797": 30407,
  "wiping": 14612,
  "applicants": 17362,
  "ser": 14262,
  "\u056f": 1227,
  "outlines": 22106,
  "raids": 11217,
  "banner": 9484,
  "explorers": 19264,
  "simulated": 23599,
  "injury": 4544,
  "1949": 4085,
  "shrinking": 28375,
  "##aring": 22397,
  "meyer": 11527,
  "treatise": 15326,
  "[unused784]": 789,
  "applicant": 23761,
  "laval": 26205,
  "##icing": 23553,
  "##\u2075": 30074,
  "[unused625]": 630,
  "##aco": 22684,
  "##cula": 19879,
  "concerns": 5936,
  "devised": 14917,
  "touchdown": 7921,
  "dl": 21469,
  "pulpit": 23134,
  "tempered": 22148,
  "tex": 16060,
  "barton": 12975,
  "operations": 3136,
  "revisions": 24699,
  "##pal": 12952,
  "colts": 14390,
  "removes": 20362,
  "[unused323]": 328,
  "petrol": 17141,
  "unclear": 10599,
  "mary": 2984,
  "newsweek": 26948,
  "wedding": 5030,
  "##igraphy": 23132,
  "boyd": 12164,
  "cadets": 15724,
  "##nzo": 25650,
  "[unused954]": 959,
  "sullivan": 7624,
  "care": 2729,
  "period": 2558,
  "eater": 28496,
  "calvin": 11130,
  "##phate": 24556,
  "ensuring": 12725,
  "lt": 8318,
  "[unused266]": 271,
  "strangled": 21384,
  "exceptions": 11790,
  "floats": 24885,
  "pharmaceuticals": 24797,
  "##hyllum": 27750,
  "sultanate": 21308,
  "enoch": 28178,
  "exceed": 13467,
  "hybrid": 8893,
  "indonesian": 9003,
  "patron": 9161,
  "254": 22234,
  "ethnic": 5636,
  "goal": 3125,
  "prototypes": 19599,
  "##ish": 4509,
  "persuaded": 11766,
  "##eding": 17819,
  "teenagers": 12908,
  "##\u044f": 17432,
  "internal": 4722,
  "salzburg": 18369,
  "baroque": 10456,
  "facilitate": 10956,
  "338": 27908,
  "mohawk": 22338,
  "galileo": 21514,
  "dinah": 26562,
  "vitamin": 17663,
  "researches": 27338,
  "##ples": 21112,
  "[unused900]": 905,
  "mexican": 4916,
  "liturgical": 19246,
  "notch": 18624,
  "trips": 9109,
  "receive": 4374,
  "[unused845]": 850,
  "rugged": 17638,
  "accused": 5496,
  "conducting": 9283,
  "vibration": 17880,
  "flora": 10088,
  "marine": 3884,
  "pictorial": 28304,
  "##ald": 19058,
  "##\u2193": 30114,
  "natural": 3019,
  "decoration": 11446,
  "gentlemen": 11218,
  "attracted": 6296,
  "scientific": 4045,
  "shelly": 28360,
  "##\u5b66": 30343,
  "##ten": 6528,
  "reflect": 8339,
  "booster": 23715,
  "pandora": 19066,
  "essex": 8862,
  "##pants": 27578,
  "says": 2758,
  "prestigious": 8919,
  "dukes": 16606,
  "tri": 13012,
  "illustrate": 19141,
  "##hawk": 17998,
  "##uram": 27618,
  "announce": 14970,
  "##connected": 24230,
  "glimpse": 12185,
  "streaming": 11058,
  "restart": 23818,
  "maggie": 8538,
  "ontario": 4561,
  "##ders": 13375,
  "ban": 7221,
  "tomatoes": 12851,
  "##\u308d": 30215,
  "judgment": 8689,
  "bit": 2978,
  "##jiang": 21786,
  "consistently": 10862,
  "##fulness": 20938,
  "engined": 21235,
  "##imated": 20592,
  "125": 8732,
  "##\u0263": 29683,
  "kilometers": 7338,
  "stabilize": 27790,
  "##ial": 4818,
  "##oza": 25036,
  "stein": 14233,
  "##\u00b4": 29658,
  "##ome": 8462,
  "burnt": 11060,
  "officially": 3985,
  "[unused752]": 757,
  "##cend": 23865,
  "dimensions": 9646,
  "murdering": 21054,
  "##grass": 19673,
  "##h": 2232,
  "cellular": 12562,
  "referees": 25118,
  "slabs": 28761,
  "prix": 5431,
  "##ko": 3683,
  "90": 3938,
  "contributions": 5857,
  "compartment": 15273,
  "grown": 4961,
  "steer": 20634,
  "lu": 11320,
  "[unused953]": 958,
  "weights": 15871,
  "benfica": 26542,
  "##gno": 26745,
  "berkshire": 15570,
  "sar": 18906,
  "stroked": 11699,
  "stewart": 5954,
  "##kovsky": 23829,
  "[unused41]": 42,
  "autobiographical": 18534,
  "fairy": 8867,
  "consulting": 10552,
  "\u4eba": 1756,
  "day": 2154,
  "ramsay": 19460,
  "##hus": 9825,
  "reissue": 17173,
  "farmers": 6617,
  "missing": 4394,
  "manufacturer": 7751,
  "psalm": 22728,
  "impression": 8605,
  "ending": 4566,
  "87": 6584,
  "##berg": 4059,
  "cis": 20199,
  "issn": 23486,
  "chain": 4677,
  "titular": 12960,
  "##\u306d": 30196,
  "1996": 2727,
  "\u5343": 1784,
  "obtain": 6855,
  "api": 17928,
  "##pl": 24759,
  "inscriptions": 12920,
  "awaiting": 15497,
  "briggs": 15487,
  "silvery": 21666,
  "kings": 5465,
  "twice": 3807,
  "unopposed": 17123,
  "##tosis": 25950,
  "##nity": 22758,
  "rescuing": 23659,
  "1609": 28058,
  "permitting": 24523,
  "##cote": 19800,
  "utilize": 16462,
  "remote": 6556,
  "riaa": 22716,
  "##sts": 12837,
  "chapter": 3127,
  "jagged": 18187,
  "profit": 5618,
  "jj": 29017,
  "rama": 14115,
  "safety": 3808,
  "furnace": 17533,
  "##stick": 21354,
  "wrenched": 26971,
  "##dro": 22196,
  "spirituality": 21244,
  "balkans": 19733,
  "rectangular": 10806,
  "##uer": 13094,
  "##chet": 20318,
  "distribution": 4353,
  "subsided": 26588,
  "##fera": 27709,
  "meteorological": 20557,
  "textual": 25304,
  "truce": 18415,
  "ems": 29031,
  "doing": 2725,
  "lawyers": 9559,
  "wood": 3536,
  "forest": 3224,
  "##nu": 11231,
  "homeless": 11573,
  "##kon": 19648,
  "mice": 12328,
  "mining": 5471,
  "venue": 6891,
  "andre": 7213,
  "[unused165]": 170,
  "\u8a01": 1949,
  "island": 2479,
  "##\u7687": 30443,
  "growled": 8881,
  "tt": 23746,
  "midtown": 27219,
  "##gh": 5603,
  "ak": 17712,
  "##vinsky": 27704,
  "earl": 4656,
  "psychologists": 25428,
  "shortened": 12641,
  "textiles": 18762,
  "\u0458": 1214,
  "ching": 19992,
  "350": 8698,
  "openings": 16556,
  "##fen": 18940,
  "[unused73]": 74,
  "rushing": 8375,
  "era": 3690,
  "frequented": 24832,
  "lists": 7201,
  "charlotte": 5904,
  "southwest": 4943,
  "##mus": 7606,
  "official": 2880,
  "prasad": 17476,
  "beaver": 13570,
  "\u4f0a": 1762,
  "back": 2067,
  "ff": 21461,
  "delivery": 6959,
  "\u10d0": 1438,
  "safe": 3647,
  "##poulos": 24662,
  "[unused70]": 71,
  "evan": 9340,
  "sweaty": 19889,
  "biology": 7366,
  "evening": 3944,
  "grants": 8624,
  "beige": 28799,
  "danish": 5695,
  "snails": 13482,
  "##onate": 21149,
  "[unused437]": 442,
  "flair": 22012,
  "missy": 25019,
  "cards": 5329,
  "##\u66f8": 30397,
  "##hesion": 21471,
  "killer": 6359,
  "tugging": 17100,
  "answers": 6998,
  "##urities": 29366,
  "##\u2014": 30052,
  "wi": 15536,
  "guide": 5009,
  "willed": 22705,
  "executions": 22679,
  "letting": 5599,
  "scooped": 20804,
  "##rya": 20444,
  "[unused825]": 830,
  "##\u1d58": 30042,
  "[unused61]": 62,
  "dad": 3611,
  "explains": 7607,
  "prompted": 9469,
  "1819": 12552,
  "dress": 4377,
  "summit": 6465,
  "ronin": 29249,
  "te": 8915,
  "folded": 6999,
  "anguish": 21782,
  "##rce": 19170,
  "equity": 10067,
  "evacuated": 13377,
  "lucille": 28016,
  "78": 6275,
  "##\u56fd": 30325,
  "doubts": 13579,
  "##bus": 8286,
  "decreased": 10548,
  "nathaniel": 13961,
  "devoid": 22808,
  "206": 18744,
  "##\u0dc0": 29943,
  "saddam": 24111,
  "##act": 18908,
  "consort": 13440,
  "hydra": 26018,
  "rifles": 9494,
  "qi": 18816,
  "striking": 8478,
  "\u11ab": 1485,
  "racism": 14398,
  "assign": 23911,
  "venture": 6957,
  "04": 5840,
  "##oteric": 29112,
  "##hala": 19531,
  "remnants": 11270,
  "##ju": 9103,
  "instruments": 5693,
  "##dle": 10362,
  "\u2018": 1520,
  "marian": 14042,
  "##\u0272": 29689,
  "parking": 5581,
  "talon": 19048,
  "malicious": 24391,
  "persians": 27229,
  "regulatory": 10738,
  "energetic": 18114,
  "greaves": 27808,
  "unrelated": 15142,
  "ltd": 5183,
  "[unused164]": 169,
  "nor": 4496,
  "##\u4f50": 30290,
  "nausea": 19029,
  "##ades": 18673,
  "academie": 19669,
  "takahashi": 25585,
  "[unused78]": 79,
  "courses": 5352,
  "vaccine": 17404,
  "1740": 21757,
  "apache": 15895,
  "grounded": 16764,
  "peculiar": 14099,
  "whales": 17967,
  "##wi": 9148,
  "##lter": 21928,
  "brooklyn": 6613,
  "picasso": 22457,
  "fire": 2543,
  "lambert": 12838,
  "forceful": 28552,
  "oven": 17428,
  "fucked": 21746,
  "tanks": 7286,
  "##\u209a": 30097,
  "heavier": 11907,
  "\u5fb7": 1848,
  "##ible": 7028,
  "ultimately": 4821,
  "ow": 27593,
  "recited": 24843,
  "##itzer": 19253,
  "[unused710]": 715,
  "competitions": 6479,
  "repairing": 26296,
  "rankings": 10385,
  "grows": 7502,
  "witch": 6965,
  "completes": 28123,
  "portable": 12109,
  "blaine": 20002,
  "ins": 16021,
  "##tag": 15900,
  "nolan": 13401,
  "darkened": 13755,
  "##eles": 26741,
  "traction": 16493,
  "biochemistry": 22419,
  "[unused268]": 273,
  "distributing": 20083,
  "baku": 16807,
  "##utter": 26878,
  "demands": 7670,
  "##cup": 15569,
  "##\u2ebc": 30159,
  "1857": 8204,
  "[unused82]": 83,
  "##west": 19650,
  "##rera": 24068,
  "redwood": 27552,
  "cemeteries": 20973,
  "tang": 9745,
  "pays": 12778,
  "##mania": 27010,
  "cultivation": 13142,
  "fifties": 25942,
  "roberta": 23455,
  "vanish": 25887,
  "lobes": 24423,
  "scandinavia": 20612,
  "danzig": 26669,
  "wakes": 17507,
  "neon": 16231,
  "ignacio": 22988,
  "##gens": 21230,
  "wichita": 18614,
  "hidden": 5023,
  "riders": 8195,
  "##elo": 18349,
  "422": 29269,
  "##\u2010": 30048,
  "##rney": 27114,
  "inaccurate": 24949,
  "snoop": 29044,
  "gestapo": 26446,
  "compromise": 12014,
  "balls": 7395,
  "46": 4805,
  "foremost": 16097,
  "mildred": 25452,
  "markham": 26197,
  "##\u10dd": 29986,
  "[unused917]": 922,
  "##atal": 27815,
  "ambiguous": 20080,
  "faltered": 26015,
  "inn": 7601,
  "bacon": 11611,
  "trailing": 12542,
  "earliest": 5700,
  "host": 3677,
  "accommodated": 28959,
  "connects": 8539,
  "bradshaw": 23762,
  "##wide": 22517,
  "chromosomes": 26874,
  "churchyard": 19812,
  "passageway": 27336,
  "ie": 29464,
  "cop": 8872,
  "cured": 21391,
  "##rre": 14343,
  "notified": 19488,
  "pointing": 7302,
  "pdf": 11135,
  "##idge": 13623,
  "considered": 2641,
  "drama": 3689,
  "##\u21d2": 30119,
  "charlemagne": 27257,
  "plague": 11629,
  "civilians": 9272,
  "##py": 7685,
  "exposure": 7524,
  "suv": 15620,
  "benign": 28378,
  "\u09c7": 1381,
  "##ren": 7389,
  "\u0644": 1294,
  "aviv": 12724,
  "beau": 17935,
  "##mian": 20924,
  "presidency": 8798,
  "##\u099f": 29895,
  "sa": 7842,
  "coefficient": 19064,
  "colourful": 26102,
  "upstream": 13909,
  "gs": 28177,
  "removed": 3718,
  "sue": 9790,
  "speedy": 26203,
  "newfound": 27608,
  "astor": 25159,
  "dal": 17488,
  "honneur": 28197,
  "distinctly": 19517,
  "macleod": 23075,
  "##naud": 26160,
  "timothy": 10805,
  "resources": 4219,
  "bray": 19743,
  "christina": 12657,
  "##ophone": 25232,
  "950": 20317,
  "manufacture": 9922,
  "##vation": 21596,
  "mathematics": 5597,
  "unchanged": 15704,
  "disclosure": 19380,
  "##fying": 14116,
  "leisure": 12257,
  "nuts": 12264,
  "covent": 29456,
  "bellamy": 25544,
  "fatally": 26292,
  "outline": 12685,
  "punta": 27377,
  "rip": 10973,
  "[unused626]": 631,
  "sociology": 11507,
  "turk": 22883,
  "\u00b9\u2044\u2082": 18728,
  "##db": 18939,
  "orientation": 10296,
  "horses": 5194,
  "##\u0255": 29680,
  "are": 2024,
  "[unused675]": 680,
  "bluff": 14441,
  "sinatra": 19643,
  "stamp": 11359,
  "flour": 13724,
  "pitch": 6510,
  "submission": 12339,
  "inequality": 16440,
  "##zhi": 19436,
  "[unused671]": 676,
  "forever": 5091,
  "##amen": 27245,
  "bobby": 6173,
  "tuesday": 9857,
  "##oven": 25592,
  "395": 24673,
  "creaked": 28068,
  "hill": 2940,
  "keynes": 22152,
  "biological": 6897,
  "backs": 10457,
  "ferreira": 26135,
  "wan": 14071,
  "adverse": 15316,
  "275": 17528,
  "indifferent": 24436,
  "aggressively": 24663,
  "dustin": 24337,
  "##copic": 26461,
  "##cht": 10143,
  "##\u026b": 29686,
  "appeared": 2596,
  "##wyn": 11761,
  "##our": 8162,
  "malayalam": 12998,
  "802": 23908,
  "promenade": 26815,
  "siren": 19558,
  "##\u0459": 29762,
  "arya": 26140,
  "##rro": 18933,
  "palais": 22113,
  "jumping": 8660,
  "##\u0f62": 29970,
  "oath": 11292,
  "whenever": 7188,
  "external": 6327,
  "holmes": 9106,
  "pact": 14790,
  "spoken": 5287,
  "fingers": 3093,
  "editorial": 8368,
  "slice": 14704,
  "##escence": 28964,
  "##gold": 21270,
  "alderman": 18977,
  "##\u0679": 29838,
  "hurt": 3480,
  "dancers": 10487,
  "grazed": 26627,
  "holder": 9111,
  "playoffs": 7555,
  "cameron": 7232,
  "scenario": 11967,
  "hike": 21857,
  "tyson": 19356,
  "##lab": 20470,
  "##ices": 23522,
  "##nger": 11392,
  "rodgers": 15652,
  "peugeot": 26385,
  "hacker": 23307,
  "hurting": 11878,
  "loneliness": 20334,
  "southbound": 19751,
  "##pping": 14853,
  "\u116d": 1477,
  "\u4e3b": 1747,
  "1790": 13393,
  "bay": 3016,
  "rustling": 29188,
  "thanksgiving": 15060,
  "campuses": 13696,
  "[unused249]": 254,
  "alonso": 17649,
  "ashby": 28729,
  "hz": 22100,
  "mayor": 3664,
  "disciples": 17102,
  "flutes": 28453,
  "[unused439]": 444,
  "icelandic": 14024,
  "##ure": 5397,
  "norwegian": 5046,
  "rodents": 28156,
  "[unused300]": 305,
  "alignment": 12139,
  "raider": 27826,
  "\u1d64": 1509,
  "chilly": 24222,
  "woodlands": 19268,
  "##3d": 29097,
  "nairobi": 21124,
  "coloration": 28757,
  "##lton": 13947,
  "exposed": 6086,
  "##inates": 28184,
  "bonded": 20886,
  "brains": 14332,
  "slated": 18517,
  "[unused101]": 106,
  "exited": 15284,
  "good": 2204,
  "preoccupied": 23962,
  "##rrell": 14069,
  "flex": 23951,
  "##ami": 10631,
  "sheng": 25981,
  "##\u2265": 30136,
  "ollie": 25208,
  "luz": 26214,
  "originate": 21754,
  "attractions": 13051,
  "1953": 4052,
  "cycling": 9670,
  "mater": 16289,
  "brain": 4167,
  "partner": 4256,
  "struggles": 11785,
  "ranks": 6938,
  "mourning": 16236,
  "1911": 5184,
  "perished": 23181,
  "##thes": 24138,
  "not": 2025,
  "reasonable": 9608,
  "symmetry": 14991,
  "macon": 20025,
  "sierra": 7838,
  "mansfield": 15352,
  "ransom": 16540,
  "murders": 9916,
  "socrates": 26772,
  "funky": 24151,
  "lieutenant": 3812,
  "nautical": 11339,
  "marry": 5914,
  "\u4f50": 1764,
  "economically": 15318,
  "zoological": 26168,
  "legions": 23269,
  "reaper": 19559,
  "rover": 13631,
  "##cies": 9243,
  "\u0f44": 1427,
  "picking": 8130,
  "belgium": 5706,
  "malley": 25271,
  "1823": 12522,
  "weighed": 12781,
  "hindu": 7560,
  "purse": 8722,
  "raf": 7148,
  "gomez": 12791,
  "clasped": 16763,
  "stella": 11894,
  "unused": 15171,
  "##leton": 19263,
  "amateur": 5515,
  "listened": 7791,
  "##lide": 24198,
  "unification": 16905,
  "urged": 9720,
  "vial": 28475,
  "stephan": 15963,
  "ride": 4536,
  "scholar": 6288,
  "allowing": 4352,
  "math": 8785,
  "chop": 24494,
  "[unused583]": 588,
  "##\u0458": 29761,
  "##ksha": 28132,
  "caucasus": 16512,
  "##\u72ac": 30434,
  "graduating": 6800,
  "mesh": 20437,
  "baccalaureate": 27802,
  "great": 2307,
  "paintings": 5265,
  "into": 2046,
  "averaging": 14985,
  "bedrooms": 18390,
  "vivid": 14954,
  "1793": 12387,
  "specialized": 7772,
  "veteran": 8003,
  "disciplines": 12736,
  "hindus": 18221,
  "superliga": 25922,
  "sneakers": 28130,
  "\u03c9": 1179,
  "##urne": 21737,
  "ticking": 28561,
  "\u30c4": 1712,
  "windshield": 19521,
  "\u5dde": 1836,
  "wanting": 5782,
  "exemplary": 27792,
  "ground": 2598,
  "##elin": 18809,
  "waistband": 27553,
  "intervened": 21116,
  "[unused235]": 240,
  "treasury": 9837,
  "policy": 3343,
  "celebrity": 8958,
  "presented": 3591,
  "synchronized": 25549,
  "[unused764]": 769,
  "1731": 28446,
  "version": 2544,
  "sneered": 28098,
  "carmel": 19443,
  "threatened": 5561,
  "##nted": 14706,
  "glazed": 19724,
  "tea": 5572,
  "flaming": 19091,
  "canopy": 14582,
  "mainline": 20575,
  "loss": 3279,
  "havana": 15278,
  "mathew": 25436,
  "alicia": 15935,
  "lest": 26693,
  "hon": 10189,
  "dogs": 6077,
  "nippon": 19364,
  "##ron": 4948,
  "herzegovina": 11453,
  "masked": 16520,
  "[unused499]": 504,
  "[unused19]": 20,
  "bordering": 18299,
  "educating": 25088,
  "child": 2775,
  "fairfax": 17833,
  "msc": 23794,
  "spotting": 27963,
  "##gui": 25698,
  "##\u11af": 30022,
  "modelled": 23364,
  "stabbed": 13263,
  "[unused687]": 692,
  "[unused950]": 955,
  "receptor": 10769,
  "recognise": 17614,
  "kayla": 26491,
  "earls": 27371,
  "nebraska": 8506,
  "daly": 18509,
  "rhythm": 6348,
  "1854": 8421,
  "vision": 4432,
  "transfers": 15210,
  "collectively": 13643,
  "objective": 7863,
  "##\u30df": 30250,
  "stared": 3592,
  "##tma": 29418,
  "[unused396]": 401,
  "##wd": 21724,
  "inspirational": 28676,
  "tripoli": 21841,
  "\u30a7": 1697,
  "hurst": 26405,
  "medicare": 27615,
  "\u702c": 1905,
  "saline": 28413,
  "##hr": 8093,
  "coyotes": 26880,
  "##vite": 25217,
  "saxophonist": 19977,
  "##lston": 21540,
  "creditors": 23112,
  "##ola": 6030,
  "homo": 24004,
  "jeff": 5076,
  "jimmy": 5261,
  "breakers": 24742,
  "managing": 6605,
  "variants": 10176,
  "rewarded": 14610,
  "rosenthal": 29062,
  "[unused660]": 665,
  "richards": 9712,
  "##lu": 7630,
  "##iful": 18424,
  "##thed": 23816,
  "goats": 17977,
  "sweatshirt": 28095,
  "casket": 25864,
  "chamber": 4574,
  "##imov": 25299,
  "climax": 14463,
  "midway": 12213,
  "contractor": 13666,
  "jarrett": 24503,
  "cradle": 18293,
  "competes": 14190,
  "furnished": 19851,
  "sabha": 11200,
  "[unused173]": 178,
  "##nova": 13455,
  "wizards": 16657,
  "kade": 26159,
  "pine": 7222,
  "##win": 10105,
  "sir": 2909,
  "hackney": 28425,
  "##dek": 24463,
  "estate": 3776,
  "##yn": 6038,
  "##\u548c": 30322,
  "biscuits": 27529,
  "judaism": 13725,
  "prevalence": 20272,
  "hardin": 27522,
  "sakura": 23066,
  "##his": 24158,
  "airplay": 15341,
  "1685": 25053,
  "##gley": 22971,
  "helix": 25743,
  "aggregation": 28041,
  "##sen": 5054,
  "maxi": 21510,
  "abstract": 10061,
  "terrific": 27547,
  "germans": 7074,
  "lands": 4915,
  "coughed": 19055,
  "[unused344]": 349,
  "##church": 22743,
  "[unused554]": 559,
  "##sal": 12002,
  "entry": 4443,
  "##care": 16302,
  "##runner": 23195,
  "##scent": 27654,
  "routes": 5847,
  "vacation": 10885,
  "lines": 3210,
  "##pse": 29251,
  "pairing": 22778,
  "intensely": 20531,
  "thirty": 4228,
  "christine": 10941,
  "\u300d": 1642,
  "favoured": 16822,
  "251": 22582,
  "solutions": 7300,
  "incorrectly": 19721,
  "buckle": 22853,
  "explosions": 18217,
  "mps": 12616,
  "paralympics": 15600,
  "dale": 8512,
  "mi": 2771,
  "mikhail": 11318,
  "ferrara": 28635,
  "unable": 4039,
  "harmful": 17631,
  "[unused34]": 35,
  "diocesan": 18680,
  "##itic": 18291,
  "##of": 11253,
  "mina": 19808,
  "builds": 16473,
  "packaging": 14793,
  "galley": 27124,
  "spent": 2985,
  "starters": 29400,
  "##dis": 10521,
  "31": 2861,
  "10": 2184,
  "scholarship": 6566,
  "darker": 9904,
  "entrances": 18084,
  "##arable": 25236,
  "perpendicular": 19581,
  "wonders": 16278,
  "bt": 18411,
  "asks": 5176,
  "##\u092f": 29868,
  "##escu": 19434,
  "##\u10db": 29984,
  "concacaf": 22169,
  "##hima": 16369,
  "whilst": 5819,
  "luther": 9678,
  "\u057a": 1233,
  "dysfunction": 28466,
  "hardy": 9532,
  "brigade": 4250,
  "nagasaki": 27107,
  "[unused729]": 734,
  "macau": 16878,
  "[unused404]": 409,
  "preparations": 12929,
  "roth": 12211,
  "racehorse": 25068,
  "\u5185": 1773,
  "gallons": 18501,
  "fis": 27424,
  "277": 25578,
  "##\u27e9": 30156,
  "crimson": 11466,
  "minogue": 27736,
  "\u02b3": 1142,
  "##hy": 10536,
  "entourage": 25342,
  "pets": 18551,
  "\u0562": 1220,
  "australia": 2660,
  "completed": 2949,
  "wielding": 26974,
  "wehrmacht": 23443,
  "horrified": 14603,
  "1662": 25909,
  "ninth": 6619,
  "roi": 25223,
  "\u6f22": 1904,
  "tail": 5725,
  "visible": 5710,
  "explored": 10641,
  "silvio": 28107,
  "[unused993]": 998,
  "gulped": 25411,
  "investigate": 8556,
  "doc": 9986,
  "obligation": 14987,
  "midfielder": 8850,
  "driven": 5533,
  "##uj": 23049,
  "##line": 4179,
  "caller": 20587,
  "coordinated": 14206,
  "email": 10373,
  "irwin": 17514,
  "und": 6151,
  "caledonia": 19305,
  "disadvantage": 20502,
  "manifest": 19676,
  "5": 1019,
  "nicholas": 6141,
  "ordinary": 6623,
  "whistled": 26265,
  "vinnie": 24214,
  "gregorian": 25847,
  "surge": 12058,
  "enhance": 11598,
  "navigable": 28538,
  "burial": 8940,
  "nuclei": 23767,
  "##ning": 5582,
  "acquire": 9878,
  "\u3086": 1683,
  "walton": 14290,
  "cooling": 11520,
  "ingredients": 12760,
  "zev": 27909,
  "connecting": 7176,
  "judging": 13325,
  "##istan": 23137,
  "##gano": 29451,
  "##\u0f51": 29964,
  "1622": 28133,
  "drummond": 19266,
  "refusal": 13948,
  "municipality": 3250,
  "keystone": 22271,
  "accept": 5138,
  "##eres": 18702,
  "broadcasts": 8960,
  "##uld": 21285,
  "shrewsbury": 18174,
  "carriers": 11363,
  "annie": 8194,
  "highway": 3307,
  "necessitated": 29611,
  "locked": 5299,
  "##imating": 22835,
  "prison": 3827,
  "proportional": 14267,
  "mac": 6097,
  "historic": 3181,
  "sync": 26351,
  "##tell": 23567,
  "legion": 8009,
  "perfume": 17013,
  "hotspur": 25985,
  "benito": 23595,
  "driving": 4439,
  "fiba": 13651,
  "periodicals": 21855,
  "##mbo": 13344,
  "hamid": 24811,
  "waited": 4741,
  "##lithic": 28508,
  "inuit": 25179,
  "[unused981]": 986,
  "arena": 5196,
  "fallout": 23902,
  "gold": 2751,
  "graphics": 8389,
  "hornet": 26795,
  "phillips": 8109,
  "competed": 3879,
  "##ona": 7856,
  "jude": 12582,
  "\u0e27": 1419,
  "lip": 5423,
  "##ya": 3148,
  "coulter": 28293,
  "irony": 19728,
  "\u0438": 1188,
  "##nsen": 29428,
  "[unused447]": 452,
  "pioneers": 13200,
  "integrated": 6377,
  "silas": 18553,
  "\u4e45": 1748,
  "##meo": 26247,
  "boy": 2879,
  "siam": 25583,
  "upscale": 28276,
  "##bian": 15599,
  "footage": 8333,
  "remembered": 4622,
  "guitars": 7334,
  "chartered": 12443,
  "##puted": 29462,
  "devastation": 25594,
  "engages": 24255,
  "legislators": 22680,
  "[unused985]": 990,
  "inverted": 20037,
  "spade": 23288,
  "correctly": 11178,
  "equations": 11380,
  "##lge": 28875,
  "surveyor": 17169,
  "affiliated": 6989,
  "watch": 3422,
  "sweetness": 23210,
  "summarized": 22539,
  "cactus": 23265,
  "##dice": 24598,
  "rr": 25269,
  "[unused350]": 355,
  "patch": 8983,
  "scientology": 23845,
  "plight": 24525,
  "marlene": 26921,
  "rage": 7385,
  "clay": 5726,
  "incorporate": 13265,
  "theo": 14833,
  "busch": 15840,
  "##xy": 18037,
  "lacked": 10858,
  "federico": 20493,
  "[unused961]": 966,
  "basque": 13915,
  "asthma": 26180,
  "governors": 11141,
  "murderer": 13422,
  "tenants": 14665,
  "toast": 15174,
  "auditioned": 23008,
  "wells": 7051,
  "##\u03b8": 29725,
  "db": 16962,
  "honduras": 14373,
  "##sten": 16173,
  "217": 20335,
  "##lates": 26786,
  "applies": 12033,
  "redesigned": 17051,
  "lemon": 14380,
  "ski": 8301,
  "[unused303]": 308,
  "hubert": 15346,
  "domed": 29208,
  "biased": 25352,
  "[unused740]": 745,
  "timber": 7227,
  "transactions": 11817,
  "brightly": 14224,
  "##zow": 22670,
  "remington": 25282,
  "miles": 2661,
  "fund": 4636,
  "workings": 24884,
  "minorities": 14302,
  "common": 2691,
  "conclude": 16519,
  "jayne": 24408,
  "##gami": 26517,
  "##diment": 21341,
  "standards": 4781,
  "stop": 2644,
  "miss": 3335,
  "italians": 16773,
  "##\u2097": 30095,
  "##\u99ac": 30506,
  "brigades": 14589,
  "locating": 26339,
  "cook": 5660,
  "kb": 21677,
  "\u266f": 1628,
  "cane": 11942,
  "##emia": 17577,
  "\u02b2": 1141,
  "[unused865]": 870,
  "radio": 2557,
  "unearthed": 27422,
  "dharma": 20669,
  "heaviest": 26858,
  "##dre": 16200,
  "corbin": 24003,
  "stack": 9991,
  "konrad": 22958,
  "##erman": 18689,
  "##ilo": 22360,
  "glucose": 18423,
  "[unused425]": 430,
  "suzanne": 15146,
  "##amina": 27651,
  "##omp": 25377,
  "heaving": 23907,
  "midi": 22265,
  "portraits": 9668,
  "myrtle": 21381,
  "humans": 4286,
  "##lysis": 26394,
  "bryn": 19904,
  "qb": 26171,
  "neglect": 19046,
  "pedro": 7707,
  "saturday": 5095,
  "linguistic": 12158,
  "planet": 4774,
  "muse": 18437,
  "warrington": 23051,
  "enraged": 18835,
  "example": 2742,
  "factories": 11123,
  "gracefully": 28266,
  "berries": 22681,
  "scully": 25686,
  "prefer": 9544,
  "1761": 21364,
  "maze": 15079,
  "witchcraft": 21599,
  "[unused146]": 151,
  "winslow": 26600,
  "93": 6109,
  "dirt": 6900,
  "f1": 20069,
  "yours": 6737,
  "attitudes": 13818,
  "[unused757]": 762,
  "das": 8695,
  "noticeably": 25327,
  "##meric": 25531,
  "pearce": 19560,
  "sardinia": 21594,
  "although": 2348,
  "responsive": 26651,
  "ortega": 25859,
  "upgrading": 25925,
  "hacking": 23707,
  "mapped": 17715,
  "appealing": 16004,
  "##pas": 19707,
  "##ivating": 17441,
  "coloured": 11401,
  "christie": 13144,
  "sophisticated": 12138,
  "applied": 4162,
  "##champ": 25450,
  "##abia": 29039,
  "\u03c6": 1176,
  "lets": 11082,
  "[unused259]": 264,
  "##hire": 20908,
  "cadillac": 20425,
  "hierarchy": 12571,
  "kellan": 19697,
  "roll": 4897,
  "alma": 11346,
  "participating": 8019,
  "dwellings": 16707,
  "1876": 7326,
  "designs": 5617,
  "tumbling": 21552,
  "basis": 3978,
  "judge": 3648,
  "mcconnell": 28514,
  "##erton": 20995,
  "contenders": 27236,
  "raging": 17559,
  "##aine": 18175,
  "coroner": 22896,
  "created": 2580,
  "##planes": 26634,
  "[unused935]": 940,
  "jagger": 25827,
  "arises": 18653,
  "clair": 17936,
  "knowing": 4209,
  "dans": 18033,
  "chuckles": 26088,
  "destroying": 9846,
  "helicopters": 12400,
  "arden": 26225,
  "sacrament": 28958,
  "##lies": 11983,
  "otago": 21831,
  "resisting": 22363,
  "photo": 6302,
  "prior": 3188,
  "##ses": 8583,
  "[unused680]": 685,
  "rainfall": 10101,
  "troops": 3629,
  "divide": 11443,
  "presumed": 14609,
  "santa": 4203,
  "[unused632]": 637,
  "[unused305]": 310,
  "constrained": 27570,
  "himself": 2370,
  "randomly": 18154,
  "[unused477]": 482,
  "231": 20304,
  "immunity": 15403,
  "##dron": 19440,
  "offer": 3749,
  "absence": 6438,
  "emphasize": 17902,
  "##bled": 23242,
  "##eous": 14769,
  "89": 6486,
  "ages": 5535,
  "hara": 18820,
  "apollo": 9348,
  "^": 1034,
  "emails": 22028,
  "identify": 6709,
  "tightened": 8371,
  "poles": 10567,
  "medals": 6665,
  "##lore": 20186,
  "highest": 3284,
  "tons": 6197,
  "\u091a": 1318,
  "[unused309]": 314,
  "omnibus": 27284,
  "postdoctoral": 29272,
  "spider": 6804,
  "codes": 9537,
  "hour": 3178,
  "distance": 3292,
  "fence": 8638,
  "frog": 10729,
  "bikini": 20345,
  "investors": 9387,
  "visas": 24487,
  "musica": 21137,
  "doomed": 20076,
  "fair": 4189,
  "bumped": 19030,
  "fielding": 15452,
  "draped": 15098,
  "internet": 4274,
  "1979": 3245,
  "keyboard": 9019,
  "laughed": 4191,
  "##zi": 5831,
  "[unused600]": 605,
  "invariant": 23915,
  "primitive": 10968,
  "\u21c4": 1589,
  "akira": 21616,
  "institut": 17126,
  "quick": 4248,
  "stubborn": 14205,
  "militias": 29271,
  "hunts": 28526,
  "preferred": 6871,
  "##ath": 8988,
  "mick": 10872,
  "##keeper": 13106,
  "treatments": 13441,
  "roasted": 28115,
  "stability": 9211,
  "emerges": 19391,
  "rotating": 13618,
  "smooth": 5744,
  "solvent": 23735,
  "[unused596]": 601,
  "eco": 17338,
  "\u30d8": 1721,
  "dir": 16101,
  "sedan": 15134,
  "order": 2344,
  "bold": 7782,
  "magma": 28933,
  "##missible": 26770,
  "feet": 2519,
  "merchandise": 16359,
  "##cate": 16280,
  "##aja": 22734,
  "besides": 4661,
  "##torm": 20654,
  "christianity": 7988,
  "fergus": 21023,
  "formations": 13197,
  "founders": 8759,
  "res": 24501,
  "unitarian": 25477,
  "\u5e1d": 1838,
  "breakout": 25129,
  "jesse": 7627,
  "nicknamed": 9919,
  "animation": 7284,
  "streamlined": 29445,
  "theresa": 14781,
  "dispatched": 14501,
  "asha": 24595,
  "environment": 4044,
  "cookies": 16324,
  "##tama": 28282,
  "bb": 22861,
  "disturb": 22995,
  "##sche": 22842,
  "implement": 10408,
  "commentator": 12268,
  "slopes": 10314,
  "reconciled": 28348,
  "[unused817]": 822,
  "lp": 6948,
  "custody": 9968,
  "##tish": 24788,
  "##\u2227": 30129,
  "##yoshi": 19196,
  "dubois": 26258,
  "##no": 3630,
  "##\u056b": 29772,
  "ar": 12098,
  "##\u7701": 30446,
  "benjamin": 6425,
  "##mouth": 14359,
  "disappears": 17144,
  "\u30c8": 1714,
  "kansas": 5111,
  "##dorf": 11592,
  "shafts": 20542,
  "border": 3675,
  "\u653f": 1860,
  "reiterated": 28960,
  "allmusic": 10477,
  "donnelly": 28317,
  "tried": 2699,
  "woke": 8271,
  "normandy": 13298,
  "applying": 11243,
  "##gm": 21693,
  "colliery": 19462,
  "hospitality": 15961,
  "residue": 21755,
  "tingling": 23690,
  "manuscript": 8356,
  "advocacy": 12288,
  "mandated": 16714,
  "fox": 4419,
  "moines": 23286,
  "proposes": 17146,
  "album": 2201,
  "cable": 5830,
  "##56": 26976,
  "##ged": 5999,
  "bangkok": 12627,
  "batch": 14108,
  "exceeded": 14872,
  "melbourne": 4940,
  "##nami": 28987,
  "apocalypse": 16976,
  "\u20b1": 1575,
  "glands": 23340,
  "##pose": 20688,
  "poem": 5961,
  "helmets": 22674,
  "\u0e25": 1418,
  "kirk": 11332,
  "attendant": 16742,
  "1672": 27253,
  "1834": 10700,
  "nightfall": 28018,
  "##ve": 3726,
  "##guide": 28582,
  "darting": 24567,
  "shutter": 28180,
  "ted": 6945,
  "dams": 17278,
  "diagonal": 19754,
  "migratory": 22262,
  "?": 1029,
  "without": 2302,
  "wounded": 5303,
  "tests": 5852,
  "correlation": 16902,
  "1a": 20720,
  "donkey": 20325,
  "germanic": 15139,
  "##fire": 10273,
  "sharing": 6631,
  "buckinghamshire": 21712,
  "believers": 20373,
  "nasal": 19077,
  "terror": 7404,
  "replaced": 2999,
  "brunswick": 9192,
  "missionary": 8696,
  "revenue": 6599,
  "trunk": 8260,
  "##65": 26187,
  "kiran": 22403,
  "tx": 19067,
  "paddy": 16063,
  "##dia": 9032,
  "sidewalks": 28386,
  "imagination": 9647,
  "sons": 4124,
  "homme": 26574,
  "realized": 3651,
  "##,": 29623,
  "rosalie": 29564,
  "385": 24429,
  "tariff": 23234,
  "##rians": 23543,
  "\u1d57": 1505,
  "holds": 4324,
  "pratt": 13208,
  "opposite": 4500,
  "\u0b9a": 1383,
  "favourite": 8837,
  "156": 16734,
  "##tou": 24826,
  "##\u03b3": 29721,
  "##\u05de": 29801,
  "\u05df": 1256,
  "boxing": 8362,
  "##cturing": 19159,
  "[unused652]": 657,
  "determines": 16463,
  "undergo": 13595,
  "dorsal": 12759,
  "1632": 28216,
  "admiration": 17005,
  "field": 2492,
  "[unused694]": 699,
  "opened": 2441,
  "rene": 10731,
  "cafes": 23812,
  "races": 3837,
  "tribal": 8807,
  "[unused430]": 435,
  "ecological": 12231,
  "filed": 6406,
  "powers": 4204,
  "parameters": 11709,
  "johnston": 10773,
  "##lino": 25226,
  "subgenus": 25356,
  "197": 19975,
  "addressing": 12786,
  "farmhouse": 16870,
  "birds": 5055,
  "routledge": 21180,
  "1980s": 3865,
  "dismissed": 7219,
  "\uff09": 1988,
  "blanchard": 26870,
  "kiel": 20963,
  "antarctica": 12615,
  "1950": 3925,
  "entertained": 21474,
  "248": 24568,
  "hilbert": 27434,
  "huh": 9616,
  "##\u0993": 29888,
  "protects": 18227,
  "commencing": 25819,
  "samuel": 5212,
  "courts": 5434,
  "trier": 25487,
  "##sies": 14625,
  "earthquake": 8372,
  "space": 2686,
  "cars": 3765,
  "\u09ae": 1370,
  "saturn": 14784,
  "prejudice": 18024,
  "internationale": 21339,
  "enveloped": 25407,
  "tibet": 13319,
  "polynomials": 28175,
  "oclc": 12258,
  "unique": 4310,
  "risked": 22374,
  "touches": 12817,
  "dundee": 14252,
  "hawk": 9881,
  "\u9752": 1975,
  "##liest": 21292,
  "##roy": 13238,
  "1910s": 28088,
  "sunglasses": 17072,
  "suggests": 6083,
  "##chio": 23584,
  "diplomacy": 17610,
  "sb": 24829,
  "thief": 12383,
  "intuitive": 29202,
  "frantically": 16460,
  "described": 2649,
  "herr": 23506,
  "ecosystems": 20440,
  "shouldered": 29383,
  "\u05d4": 1245,
  "##ide": 5178,
  "detonated": 28110,
  "isbn": 3175,
  "cavalier": 28778,
  "r": 1054,
  "murmured": 7152,
  "parliament": 3323,
  "[unused657]": 662,
  "costello": 21015,
  "complained": 10865,
  "passages": 13768,
  "##shing": 12227,
  "urgently": 25478,
  "colours": 8604,
  "##ne": 2638,
  "blackmail": 25044,
  "teen": 9458,
  "optimization": 20600,
  "contestant": 10832,
  "moniker": 21937,
  "##\u0936": 29872,
  "*": 1008,
  "where": 2073,
  "ant": 14405,
  "harassed": 28186,
  "wartime": 12498,
  "mmm": 25391,
  "privileged": 21598,
  "fuels": 20145,
  "breakup": 19010,
  "neighbor": 11429,
  "##eve": 18697,
  "badly": 6649,
  "oceania": 20526,
  "##app": 29098,
  "##rgo": 18581,
  "##int": 18447,
  "rainy": 16373,
  "ford": 4811,
  "##heimer": 18826,
  "bas": 19021,
  "strauss": 16423,
  "bank": 2924,
  "guild": 9054,
  "interceptions": 18387,
  "prodigy": 28334,
  "bernardino": 21370,
  "que": 10861,
  "\u0279": 1125,
  "28th": 15538,
  "flaw": 28450,
  "buffalo": 6901,
  "europa": 12124,
  "##ffen": 18032,
  "interval": 13483,
  "selena": 19166,
  "reno": 17738,
  "evaluating": 23208,
  "[unused187]": 192,
  "##cake": 17955,
  "pajamas": 27621,
  "[unused588]": 593,
  "blogger": 28205,
  "namibia": 15408,
  "##sden": 27903,
  "curate": 27530,
  "\u0432": 1182,
  "ghostly": 24407,
  "frederick": 5406,
  "status": 3570,
  "##zar": 9057,
  "crambidae": 21585,
  "##tina": 13770,
  "grouping": 19765,
  "##tones": 11115,
  "groundbreaking": 23222,
  "[unused367]": 372,
  "##herton": 27949,
  "1655": 28438,
  "gotta": 10657,
  "announces": 17472,
  "mood": 6888,
  "visibility": 16476,
  "1988": 2997,
  "vila": 23840,
  "voting": 6830,
  "ljubljana": 21588,
  "##ports": 25378,
  "cycle": 5402,
  "##logy": 6483,
  "##ocation": 23909,
  "strings": 7817,
  "##gin": 11528,
  "clocks": 20940,
  "##53": 22275,
  "##eering": 20550,
  "ether": 28855,
  "floating": 8274,
  "reissued": 14805,
  "[unused901]": 906,
  "instincts": 16160,
  "matters": 5609,
  "floyd": 12305,
  "enables": 12939,
  "scott": 3660,
  "taunting": 29442,
  "automotive": 12945,
  "##\u0bb3": 29929,
  "proceed": 10838,
  "cumberland": 12310,
  "song": 2299,
  "280": 13427,
  "[unused787]": 792,
  "arcade": 10877,
  "yanked": 10963,
  "surface": 3302,
  "##rzburg": 29136,
  "##sation": 26652,
  "##\u00b4s": 21932,
  "la": 2474,
  "liberia": 18039,
  "hannover": 29209,
  "cebu": 23312,
  "##comb": 18274,
  "littered": 24777,
  "##clops": 28659,
  "exploits": 20397,
  "decimal": 26066,
  "device": 5080,
  "##\u529b": 30304,
  "##ilised": 21758,
  "ussr": 10331,
  "misunderstood": 28947,
  "rendezvous": 20558,
  "unlikely": 9832,
  "justified": 15123,
  "stems": 12402,
  "arrogant": 15818,
  "provision": 9347,
  "structures": 5090,
  "##bn": 24700,
  "##isa": 14268,
  "casper": 24602,
  "prolonged": 15330,
  "marking": 10060,
  "mora": 26821,
  "county": 2221,
  "53": 5187,
  "mayoral": 23578,
  "urdu": 12454,
  "phosphate": 17344,
  "##ight": 18743,
  "homicide": 18268,
  "[unused718]": 723,
  "ribbons": 22688,
  "##aby": 21275,
  "[unused56]": 57,
  "italiana": 28059,
  "ul": 17359,
  "sheridan": 13243,
  "splitting": 14541,
  "spirit": 4382,
  "narcotics": 27290,
  "##nai": 26416,
  "\u0639": 1288,
  "jena": 27510,
  "nina": 9401,
  "alarms": 29034,
  "grasped": 15517,
  "thigh": 10120,
  "amendments": 16051,
  "##za": 4143,
  "nine": 3157,
  "\u09aa": 1367,
  "sloppy": 28810,
  "plunge": 25912,
  "lifeless": 22185,
  "##house": 4580,
  "##gible": 18507,
  "yards": 4210,
  "mandela": 26887,
  "accommodation": 11366,
  "active": 3161,
  "##\u2092": 30091,
  "gallantry": 22111,
  "infantry": 3939,
  "1783": 15331,
  "liquid": 6381,
  "especially": 2926,
  "express": 4671,
  "\u0ba4": 1385,
  "motorway": 13119,
  "spurs": 18205,
  "awkward": 9596,
  "composure": 23619,
  "##tner": 18885,
  "ana": 9617,
  "jubilee": 13078,
  "miniseries": 13612,
  "bose": 21299,
  "theory": 3399,
  "montenegro": 13018,
  "1833": 11040,
  "perspective": 7339,
  "##front": 12792,
  "##iente": 25099,
  "grandchildren": 13628,
  "cohen": 9946,
  "downs": 12482,
  "writers": 4898,
  "dun": 24654,
  "\u0142odz": 17814,
  "##ghi": 28891,
  "oriental": 11481,
  "pisa": 25472,
  "skeletal": 20415,
  "\u1105": 1458,
  "[unused978]": 983,
  "dia": 22939,
  "hive": 26736,
  "1752": 24736,
  "##encia": 27742,
  "266": 25162,
  "annually": 6604,
  "hanoi": 24809,
  "enamel": 29484,
  "pocket": 4979,
  "arturo": 20520,
  "curb": 13730,
  "rihanna": 25439,
  "stretch": 7683,
  "[unused392]": 397,
  "stuff": 4933,
  "fixed": 4964,
  "robotics": 21331,
  "european": 2647,
  "##elman": 23830,
  "sides": 3903,
  "##ing": 2075,
  "smashwords": 25151,
  "belt": 5583,
  "eastwood": 24201,
  "##tein": 9589,
  "noticing": 15103,
  "##sr": 21338,
  "[unused381]": 386,
  "rei": 24964,
  "[unused984]": 989,
  "southward": 22161,
  "1890": 6193,
  "commonplace": 27550,
  "torture": 8639,
  "wilde": 18575,
  "yellow": 3756,
  "doo": 20160,
  "dignitaries": 27960,
  "[unused23]": 24,
  "[unused563]": 568,
  "clipped": 20144,
  "benevolent": 25786,
  "else": 2842,
  "healed": 15027,
  "purity": 18433,
  "cathedral": 5040,
  "##ives": 24653,
  "koppen": 20139,
  "preserved": 6560,
  "friendly": 5379,
  "enjoying": 9107,
  "aback": 26575,
  "##rba": 28483,
  "baby": 3336,
  "mayfield": 27224,
  "##\"": 29613,
  "##end": 10497,
  "breakfast": 6350,
  "hymns": 17777,
  "\u2122": 1580,
  "clean": 4550,
  "pottery": 11378,
  "birthday": 5798,
  "##ulent": 27581,
  "[unused327]": 332,
  "screw": 11224,
  "lucia": 12337,
  "erect": 14908,
  "##\u0633": 29824,
  "responsible": 3625,
  "depend": 12530,
  "philip": 5170,
  "##\u85e4": 30470,
  "##chfield": 22693,
  "booklet": 19271,
  "##dah": 18417,
  "occupation": 6139,
  "##tment": 21181,
  "drug": 4319,
  "uninhabited": 24749,
  "fraternity": 13577,
  "combustion": 16513,
  "trey": 14826,
  "##iling": 16281,
  "introduced": 3107,
  "goblin": 22639,
  "[unused175]": 180,
  "hoax": 28520,
  "vassal": 24351,
  "wolfe": 14212,
  "rhetoric": 17871,
  "politically": 10317,
  "##ay": 4710,
  "##yuan": 17236,
  "damned": 9636,
  "terminus": 7342,
  "nationally": 9582,
  "diplomatic": 8041,
  "recording": 3405,
  "desirable": 16166,
  "violins": 25877,
  "religious": 3412,
  "picture": 3861,
  "##izer": 17629,
  "throat": 3759,
  "bertram": 27515,
  "coffin": 13123,
  "##vna": 29207,
  "bait": 17395,
  "##uma": 12248,
  "humidity": 18213,
  "[unused686]": 691,
  "dozens": 9877,
  "tank": 4951,
  "94": 6365,
  "jerusalem": 6744,
  "abd": 19935,
  "pounding": 9836,
  "alpha": 6541,
  "relic": 24933,
  "molten": 23548,
  "refining": 28596,
  "watts": 11042,
  "privileges": 14310,
  "##\u0932": 29870,
  "macedonian": 13037,
  "paragraph": 20423,
  "phyllis": 20328,
  "spiritual": 6259,
  "por": 18499,
  "##arded": 28037,
  "[unused134]": 139,
  "mates": 14711,
  "##nden": 25915,
  "marty": 12578,
  "##wood": 3702,
  "corridors": 17506,
  "horace": 12757,
  "ravens": 17272,
  "##vers": 14028,
  "1704": 27769,
  "relevance": 21923,
  "pp": 4903,
  "seize": 15126,
  "##terol": 27833,
  "##gur": 27390,
  "unusually": 12890,
  "bulge": 23708,
  "##tie": 9515,
  "##zko": 29002,
  "college": 2267,
  "compared": 4102,
  "increased": 3445,
  "##ex": 10288,
  "proven": 10003,
  "##rea": 16416,
  "saxe": 24937,
  "stride": 18045,
  "salisbury": 13817,
  "wrestlers": 14039,
  "\u00b4": 1084,
  "neue": 27713,
  "compressor": 29329,
  "masses": 11678,
  "##\u207b": 30079,
  "aluminum": 13061,
  "208": 18512,
  "destiny": 10461,
  "ii": 2462,
  "2500": 25108,
  "fraction": 12884,
  "dozen": 6474,
  "privateer": 26790,
  "fairly": 7199,
  "gazing": 16448,
  "stains": 27094,
  "##ndi": 16089,
  "##tute": 24518,
  "cb": 17324,
  "drive": 3298,
  "54th": 29570,
  "##rid": 14615,
  "stacy": 18566,
  "philosopher": 9667,
  "greeting": 14806,
  "##bard": 21458,
  "paranoid": 19810,
  "possibly": 4298,
  "##hair": 26227,
  "repertory": 21099,
  "##\u5e7f": 30368,
  "blanca": 27538,
  "separates": 18600,
  "plum": 22088,
  "pointer": 20884,
  "memoirs": 13251,
  "twelve": 4376,
  "leap": 11679,
  "vittorio": 25914,
  "coyote": 20457,
  "angelina": 23847,
  "workshop": 8395,
  "##\u300f": 30170,
  "twisted": 6389,
  "collaborator": 18843,
  "plays": 3248,
  "##rka": 22379,
  "mediation": 26435,
  "##cos": 13186,
  "stance": 11032,
  "handles": 16024,
  "hilly": 22800,
  "verbal": 12064,
  "fda": 17473,
  "wills": 17234,
  "laws": 4277,
  "nottinghamshire": 20126,
  "downhill": 19448,
  "##any": 19092,
  "benefit": 5770,
  "ng": 12835,
  "reflecting": 10842,
  "unlock": 19829,
  "confined": 12302,
  "hamlet": 8429,
  "[unused973]": 978,
  "cinnamon": 21229,
  "sociological": 24846,
  "##lake": 14530,
  "##ump": 24237,
  "injunction": 22928,
  "serve": 3710,
  "hermitage": 24708,
  "dreaming": 12802,
  "organizes": 22013,
  "millennia": 27620,
  "showcased": 22443,
  "heidelberg": 16793,
  "rotor": 18929,
  "ventilation": 19536,
  "##atin": 20363,
  "##dal": 9305,
  "91": 6205,
  "submarine": 6982,
  "environments": 10058,
  "hepatitis": 28389,
  "swiftly": 12128,
  "##pic": 24330,
  "intruder": 22841,
  "\u00fe": 1101,
  "##mail": 21397,
  "\u00ac": 1078,
  "forested": 15205,
  "insignia": 16751,
  "##ire": 7442,
  "##\u5f73": 30371,
  "monmouth": 20433,
  "overwhelmed": 13394,
  "rovers": 9819,
  "cord": 11601,
  "dixon": 11357,
  "kentucky": 5612,
  "##bles": 13510,
  "brussels": 9371,
  "crash": 5823,
  "smiled": 3281,
  "hostages": 19323,
  "8th": 5893,
  "##weiler": 22384,
  "which": 2029,
  "1200": 14840,
  "[unused279]": 284,
  "aimee": 23551,
  "32": 3590,
  "de": 2139,
  "eel": 24315,
  "##typical": 27086,
  "jurisprudence": 24697,
  "read": 3191,
  "ambitions": 19509,
  "renovations": 15576,
  "simone": 14072,
  "confederacy": 18179,
  "krakow": 14576,
  "60s": 20341,
  "##\u0648": 29836,
  "corresponding": 7978,
  "sibling": 22941,
  "material": 3430,
  "javelin": 23426,
  "malice": 28238,
  "milo": 20359,
  "vents": 28287,
  "morally": 28980,
  "depicts": 11230,
  "rite": 14034,
  "kinetic": 20504,
  "plumage": 28764,
  "frontman": 21597,
  "shandong": 25768,
  "strikeouts": 20813,
  "freaks": 29526,
  "stakes": 7533,
  "menace": 19854,
  "##chrome": 20366,
  "[unused10]": 11,
  "1784": 16496,
  "runways": 24578,
  "teatro": 16038,
  "handed": 4375,
  "tutor": 14924,
  "iranian": 7726,
  "comparison": 7831,
  "influence": 3747,
  "crossed": 4625,
  "\u0436": 1186,
  "designed": 2881,
  "##\u1d62": 19109,
  "yep": 15624,
  "jedi": 27273,
  "inspections": 29589,
  "tabitha": 21581,
  "##\u043d": 18947,
  "ounce": 19471,
  "##lights": 15733,
  "##sitor": 28307,
  "##\u4e16": 30271,
  "flourished": 17893,
  "jerked": 8245,
  "flock": 19311,
  "marianne": 19887,
  "##pathy": 20166,
  "\u2502": 1616,
  "bloomberg": 22950,
  "ankara": 20312,
  "francais": 22357,
  "boeing": 10321,
  "defence": 4721,
  "compliment": 19394,
  "embryo": 28086,
  "older": 3080,
  "fuller": 12548,
  "dazed": 19720,
  "tenor": 9534,
  "##gged": 15567,
  "sloping": 24724,
  "implies": 12748,
  "##urse": 28393,
  "##pm": 9737,
  "pbs": 13683,
  "mickey": 11021,
  "evacuation": 13982,
  "flow": 4834,
  "##taken": 25310,
  "##unce": 17457,
  "salem": 10389,
  "hospitalized": 24735,
  "wasp": 19411,
  "\u90e8": 1960,
  "inventions": 21644,
  "[unused545]": 550,
  "##vating": 26477,
  "grins": 20237,
  "daryl": 22514,
  "stipulated": 25729,
  "protecting": 8650,
  "refuge": 9277,
  "[unused782]": 787,
  "319": 26499,
  "taxation": 14952,
  "centro": 18120,
  "zimmerman": 27946,
  "##inated": 15833,
  "drivers": 6853,
  "1724": 26423,
  "artworks": 22000,
  "weaker": 15863,
  "640": 19714,
  "bullshit": 14636,
  "katy": 17870,
  "##nsis": 11745,
  "monsters": 9219,
  "twinned": 25901,
  "aquitaine": 24973,
  "intercepted": 16618,
  "##\u7af9": 30459,
  "baronet": 8693,
  "emi": 12495,
  "wilderness": 9917,
  "##ens": 6132,
  "finances": 16156,
  "erasmus": 26809,
  "##hawks": 16043,
  "##stituting": 21532,
  "cereal": 20943,
  "##nna": 9516,
  "mike": 3505,
  "lipstick": 22359,
  "outcome": 9560,
  "##\u0924": 29859,
  "strikes": 9326,
  "yoko": 28758,
  "roman": 3142,
  "bp": 17531,
  "tug": 12888,
  "seeded": 13916,
  "rare": 4678,
  "1991": 2889,
  "peripheral": 15965,
  "transported": 9687,
  "journey": 4990,
  "ev": 23408,
  "\u30e5": 1729,
  "denied": 6380,
  "##hari": 18428,
  "reside": 13960,
  "hendrix": 20645,
  "dimensional": 8789,
  "customers": 6304,
  "nico": 19332,
  "donors": 17843,
  "##uting": 20807,
  "colleagues": 8628,
  "stole": 10312,
  "efforts": 4073,
  "stepping": 9085,
  "evaluation": 9312,
  "ajax": 18176,
  "[unused378]": 383,
  "lahore": 15036,
  "boards": 7923,
  "mhz": 11413,
  "##quette": 29416,
  "smiling": 5629,
  "dane": 14569,
  "licensing": 13202,
  "enhanced": 9412,
  "lynne": 26938,
  "manpower": 22039,
  "impose": 17607,
  "vendor": 21431,
  "##nst": 23808,
  "prc": 26141,
  "wwe": 11700,
  "[unused383]": 388,
  "involved": 2920,
  "claudio": 19569,
  "##ctor": 16761,
  "johannes": 12470,
  "humanitarian": 11470,
  "bend": 8815,
  "shredded": 29022,
  "##mill": 19912,
  "##nock": 18057,
  "##powering": 23948,
  "discontent": 27648,
  "employers": 12433,
  "##\u6c38": 30422,
  "fold": 10671,
  "underway": 14128,
  "mixes": 21109,
  "compiling": 21953,
  "##\u3078": 30201,
  "abu": 8273,
  "##\u05d2": 29790,
  "##\u091f": 29856,
  "1918": 4271,
  "braun": 21909,
  "blooded": 26064,
  "denote": 19090,
  "than": 2084,
  "million": 2454,
  "ratified": 17673,
  "dependency": 24394,
  "surgeon": 9431,
  "##jian": 27685,
  "##naire": 20589,
  "cramer": 29433,
  "gram": 13250,
  "##rien": 23144,
  "cloak": 11965,
  "edmonton": 10522,
  "commitment": 8426,
  "choosing": 10549,
  "##hema": 28433,
  "notwithstanding": 26206,
  "confessed": 14312,
  "fourteenth": 15276,
  "photon": 26383,
  "lal": 21348,
  "deserved": 10849,
  "continuity": 13717,
  "design": 2640,
  "##\u0574": 29776,
  "\u5143": 1769,
  "liverpool": 6220,
  "geology": 13404,
  "##de": 3207,
  "calhoun": 22982,
  "cheerful": 18350,
  "stan": 9761,
  "taxonomic": 27691,
  "magician": 16669,
  "##arium": 17285,
  "eighth": 5964,
  "gravitational": 19790,
  "chord": 13924,
  "precipitation": 13511,
  "jolly": 22193,
  "fertile": 14946,
  "chiefly": 15897,
  "mira": 18062,
  "soviet": 3354,
  "ferguson": 11262,
  "##ttal": 28200,
  "900": 7706,
  "##\u91d1": 30490,
  "ariel": 16126,
  "homer": 11525,
  "pamela": 17217,
  "yarmouth": 28792,
  "\u2081": 1548,
  "sammy": 14450,
  "[unused636]": 641,
  "aggression": 14974,
  "canceled": 13261,
  "hearted": 18627,
  "humanoid": 28051,
  "joyah": 27098,
  "\u4ecb": 1759,
  "youths": 19634,
  "virus": 7865,
  "criterion": 19229,
  "causing": 4786,
  "##\u5e78": 30367,
  "##ere": 7869,
  "justify": 16114,
  "lever": 15929,
  "nonstop": 25493,
  "##cellular": 16882,
  "each": 2169,
  "rowe": 20538,
  "thirds": 12263,
  "tide": 10401,
  "##pathic": 25940,
  "implications": 13494,
  "##aka": 11905,
  "##\u0431": 29740,
  "[unused846]": 851,
  "##tas": 10230,
  "crate": 27297,
  "merton": 28169,
  "narrower": 22546,
  "mirror": 5259,
  "##erate": 22139,
  "##uating": 24133,
  "[unused431]": 436,
  "##\u0131": 11722,
  "associated": 3378,
  "##ducted": 29510,
  "##pur": 5311,
  "##emon": 26941,
  "curated": 17940,
  "adjutant": 20690,
  "aerial": 9682,
  "indicates": 7127,
  "orderly": 23589,
  "tom": 3419,
  "bohemia": 16799,
  "##kong": 25460,
  "peru": 7304,
  "duluth": 28218,
  "##ale": 9453,
  "##ignment": 24838,
  "algeria": 11337,
  "boys": 3337,
  "compton": 18592,
  "both": 2119,
  "mingled": 25959,
  "ke": 17710,
  "shelter": 7713,
  "shape": 4338,
  "sleeve": 10353,
  "utilities": 16548,
  "keepers": 24018,
  "rags": 26346,
  "##vian": 18073,
  "##ovo": 16059,
  "wakefield": 16045,
  "emissions": 11768,
  "discharge": 11889,
  "prototype": 8773,
  "validation": 27354,
  "follower": 22399,
  "playstation": 9160,
  "lotus": 13030,
  "##34": 22022,
  "##folia": 21710,
  "boot": 9573,
  "mcgrath": 23220,
  "sept": 17419,
  "options": 7047,
  "##chua": 26200,
  "waterfalls": 24236,
  "aide": 14895,
  "wires": 14666,
  "[unused809]": 814,
  "century": 2301,
  "\u300e": 1643,
  "##ru": 6820,
  "anthropological": 28395,
  "vanity": 18736,
  "176": 18561,
  "songs": 2774,
  "pizza": 10733,
  "stakeholders": 22859,
  "militia": 8396,
  "1940s": 7675,
  "267": 25491,
  "##sed": 6924,
  "exists": 6526,
  "appear": 3711,
  "##cks": 10603,
  "##p": 2361,
  "##sh": 4095,
  "deterioration": 26118,
  "drill": 12913,
  "##rine": 11467,
  "kathy": 14986,
  "multiplayer": 17762,
  "tab": 21628,
  "##gingly": 28392,
  "donald": 6221,
  "[unused71]": 72,
  "branding": 16140,
  "##ense": 16700,
  "carey": 11782,
  "documentary": 4516,
  "##zier": 21548,
  "chuckle": 15375,
  "chatting": 22331,
  "massif": 24875,
  "valerie": 14264,
  "cbn": 21824,
  "approval": 6226,
  "levi": 11902,
  "rapid": 5915,
  "railways": 7111,
  "rotterdam": 15632,
  "troll": 18792,
  "colleague": 11729,
  "shirt": 3797,
  "transmit": 19818,
  "bobbie": 27731,
  "243": 22884,
  "files": 6764,
  "sham": 25850,
  "classical": 4556,
  "##\u2070": 30071,
  "##plify": 28250,
  "jockey": 13989,
  "organized": 4114,
  "##enbach": 21409,
  "##dies": 18389,
  "achieved": 4719,
  "hours": 2847,
  "settings": 10906,
  "##ly": 2135,
  "meanings": 15383,
  "analytics": 25095,
  "southport": 27494,
  "joke": 8257,
  "skills": 4813,
  "##bble": 11362,
  "hitler": 8042,
  "##\u00f7": 29669,
  "planners": 27155,
  "[unused597]": 602,
  "valid": 9398,
  "parrot": 22530,
  "vitro": 25714,
  "surely": 7543,
  "clue": 9789,
  "himalayan": 28333,
  "realistic": 12689,
  "sparked": 13977,
  "inception": 12149,
  "##\u0939": 29875,
  "throwing": 6886,
  "neo": 9253,
  "54": 5139,
  "peptide": 25117,
  "\u03ba": 1164,
  "lynn": 9399,
  "ministerial": 18645,
  "plotted": 27347,
  "41": 4601,
  "##cise": 18380,
  "suits": 11072,
  "roles": 4395,
  "hays": 29051,
  "quarrel": 26260,
  "kaufman": 23699,
  "embark": 28866,
  "##yl": 8516,
  "##iff": 13355,
  "horatio": 27752,
  "montpellier": 28153,
  "[unused191]": 196,
  "matthias": 17885,
  "winding": 12788,
  "moroccan": 17494,
  "jean": 3744,
  "meals": 12278,
  "bill": 3021,
  "diversion": 20150,
  "subsequently": 3525,
  "usually": 2788,
  "prem": 26563,
  "##aa": 11057,
  "chopper": 28057,
  "590": 25186,
  "gunther": 19384,
  "inexpensive": 23766,
  "engaging": 11973,
  "sting": 12072,
  "adequate": 11706,
  "totally": 6135,
  "byzantine": 8734,
  "blazing": 17162,
  "legally": 10142,
  "supporters": 6793,
  "##vera": 26061,
  "##\u25a0": 30144,
  "expressing": 14026,
  "writhing": 26185,
  "bordered": 11356,
  "##islaus": 25678,
  "exhaust": 15095,
  "##ffey": 24513,
  "weber": 13351,
  "sentenced": 7331,
  "ka": 10556,
  "##\u09a7": 29901,
  "luigi": 15153,
  "oleg": 25841,
  "making": 2437,
  "##tyn": 25680,
  "routinely": 19974,
  "hornets": 24855,
  "##lizer": 28863,
  "expose": 14451,
  "[unused772]": 777,
  "improper": 24156,
  "##nts": 7666,
  "whispering": 13550,
  "martyr": 17216,
  "ang": 17076,
  "feeling": 3110,
  "##\u30a1": 30218,
  "mecca": 21340,
  "modifications": 12719,
  "assertion": 23617,
  "functions": 4972,
  "emancipation": 22656,
  "mascot": 13314,
  "##\u00a5": 29648,
  "compelling": 17075,
  "practised": 20439,
  "snuggled": 26867,
  "player": 2447,
  "martian": 20795,
  "academies": 20994,
  "pleasures": 26552,
  "borough": 5538,
  "[unused918]": 923,
  "claimed": 3555,
  "incurred": 22667,
  "mosque": 8806,
  "soaked": 13077,
  "upper": 3356,
  "affluent": 22666,
  "promise": 4872,
  "##thic": 23048,
  "lame": 20342,
  "##60": 16086,
  "##gative": 26792,
  "lorraine": 13895,
  "perth": 9300,
  "materialized": 27075,
  "vane": 23334,
  "volley": 28073,
  "paradigm": 20680,
  "224": 19711,
  "clones": 24418,
  "paradise": 9097,
  "bequeathed": 27180,
  "images": 4871,
  "will": 2097,
  "monopoly": 15404,
  "parapet": 27372,
  "planned": 3740,
  "lao": 18805,
  "plus": 4606,
  "premiered": 5885,
  "cuisine": 12846,
  "mika": 27857,
  "##aki": 8978,
  "howling": 22298,
  "lac": 18749,
  "leyte": 27214,
  "kindly": 19045,
  "classes": 4280,
  "rental": 12635,
  "##\u90ce": 30484,
  "##urable": 23086,
  "grimly": 22561,
  "panties": 12095,
  "##te": 2618,
  "##gence": 17905,
  "##orra": 24285,
  "[unused273]": 278,
  "disqualification": 27782,
  "fungal": 28079,
  "incumbent": 7703,
  "##\u094b": 29879,
  "haste": 24748,
  "84": 6391,
  "determining": 12515,
  "steamer": 18027,
  "dragons": 8626,
  "sober": 17358,
  "avoidance": 24685,
  "thickness": 14983,
  "instituto": 22596,
  "listing": 10328,
  "devin": 23601,
  "restrictions": 9259,
  "noon": 11501,
  "pads": 19586,
  "take": 2202,
  "tian": 23401,
  "##raction": 25533,
  "frs": 25188,
  "picked": 3856,
  "##ency": 11916,
  "cobb": 17176,
  "500": 3156,
  "1966": 3547,
  "gunner": 14850,
  "raven": 10000,
  "fans": 4599,
  "##\u2605": 30147,
  "manson": 21440,
  "##wine": 21924,
  "starbucks": 29500,
  "spectroscopy": 25458,
  "harm": 7386,
  "mapping": 12375,
  "covered": 3139,
  "nation": 3842,
  "hugh": 6621,
  "cyrillic": 15522,
  "##ractive": 26884,
  "marley": 20326,
  "##rok": 27923,
  "competitor": 12692,
  "milan": 6954,
  "nationals": 10342,
  "consists": 3774,
  "formidable": 18085,
  "reviewed": 8182,
  "chelsea": 9295,
  "directory": 14176,
  "##wire": 20357,
  "christians": 8135,
  "particularly": 3391,
  "hewitt": 19482,
  "styled": 13650,
  "##cer": 17119,
  "binary": 12441,
  "qualifying": 6042,
  "denoted": 19537,
  "illegitimate": 18102,
  "##vert": 16874,
  "secondly": 16378,
  "amphibious": 16182,
  "bottom": 3953,
  "##helm": 24546,
  "guilt": 8056,
  "links": 6971,
  "shan": 17137,
  "stool": 14708,
  "woody": 13703,
  "##chee": 25923,
  "crossbow": 28692,
  "[unused311]": 316,
  "##ogenic": 24278,
  "##\u0621": 29815,
  "opposition": 4559,
  "michel": 8709,
  "keep": 2562,
  "vikram": 29063,
  "wholesale": 17264,
  "supplement": 12448,
  "federation": 4657,
  "type": 2828,
  "mustang": 18851,
  "tape": 6823,
  "##ply": 22086,
  "##\u11b8": 30024,
  "plato": 18858,
  "shiver": 13277,
  "hollis": 27477,
  "include": 2421,
  "variable": 8023,
  "helmut": 24515,
  "airship": 27636,
  "iqbal": 28111,
  "beloved": 11419,
  "wines": 14746,
  "anchorage": 21086,
  "boca": 22765,
  "##therapy": 20900,
  "offering": 5378,
  "##\u09a8": 29902,
  "patio": 19404,
  "[unused882]": 887,
  "##\u53e4": 30315,
  "[unused190]": 195,
  "elisabeth": 12877,
  "##building": 25820,
  "[unused795]": 800,
  "occurring": 10066,
  "despite": 2750,
  "residents": 3901,
  "##ages": 13923,
  "byte": 24880,
  "[unused851]": 856,
  "frankenstein": 22478,
  "##ically": 15004,
  "[unused520]": 525,
  "##feld": 8151,
  "ranking": 5464,
  "we": 2057,
  "resentment": 20234,
  "##\u702c": 30431,
  "bengali": 11267,
  "##\u2011": 30049,
  "ref": 25416,
  "strategies": 9942,
  "14": 2403,
  "aj": 19128,
  "festivals": 7519,
  "religion": 4676,
  "conjunction": 9595,
  "porter": 8716,
  "##.": 29625,
  "adultery": 29169,
  "ellington": 21630,
  "conform": 23758,
  "replica": 15059,
  "sorry": 3374,
  "economist": 11708,
  "row": 5216,
  "nasser": 26099,
  "scraped": 20378,
  "##\u3081": 30206,
  "slide": 7358,
  "\u03b8": 1162,
  "scripture": 18919,
  "##\u1110": 30003,
  "curator": 13023,
  "duane": 27319,
  "##hita": 23935,
  "sport": 4368,
  "barbie": 22635,
  "hubbard": 16580,
  "peace": 3521,
  "itunes": 11943,
  "shovel": 24596,
  "\u0f54": 1430,
  "intently": 16170,
  "teaming": 27025,
  "georgia": 4108,
  "northeastern": 8763,
  "\u1169": 1475,
  "demonstrated": 7645,
  "ochreous": 23474,
  "somerset": 9198,
  "benin": 21164,
  "dedicated": 4056,
  "horribly": 27762,
  "c1": 27723,
  "allied": 6035,
  "gr": 24665,
  "##oir": 21165,
  "healy": 25706,
  "standings": 11869,
  "acquainted": 19056,
  "sailed": 7434,
  "provence": 19923,
  "\u0635": 1284,
  "49th": 25726,
  "case": 2553,
  "\u09bf": 1379,
  "##gar": 6843,
  "ga": 11721,
  "quietly": 5168,
  "ripley": 25231,
  "necessity": 13185,
  "stilled": 22791,
  "patti": 22732,
  "males": 3767,
  "tents": 17732,
  "aleksandr": 24020,
  "\u5834": 1806,
  "malacca": 28481,
  "altar": 9216,
  "luce": 19913,
  "matrices": 21520,
  "kazakhstan": 11769,
  "trilogy": 11544,
  "##tained": 28055,
  "contingent": 15445,
  "renewal": 14524,
  "shanghai": 8344,
  "##\u05d7": 29794,
  "##um": 2819,
  "voluntary": 10758,
  "prepares": 20776,
  "##otype": 26305,
  "arches": 13540,
  "uncredited": 8104,
  "kathleen": 14559,
  "##tub": 28251,
  "\u02bb": 1145,
  "manny": 16320,
  "gripping": 13940,
  "damp": 10620,
  "kanye": 29270,
  "spain": 3577,
  "##ters": 7747,
  "supplemented": 20585,
  "fat": 6638,
  "umar": 27981,
  "socks": 14829,
  "##ei": 7416,
  "gifford": 29360,
  "playfully": 22608,
  "##rator": 16259,
  "##dom": 9527,
  "##orestation": 25794,
  "forcibly": 20951,
  "sight": 4356,
  "locke": 18343,
  "practice": 3218,
  "ramon": 12716,
  "freezing": 12809,
  "alternatively": 14084,
  "polgara": 27041,
  "##\u0251": 29677,
  "replied": 3880,
  "armando": 26716,
  "cheng": 15898,
  "have": 2031,
  "nocturnal": 23789,
  "##zh": 27922,
  "\u4fdd": 1766,
  "diverse": 7578,
  "scuba": 28651,
  "##\u221a": 30127,
  "analogue": 21800,
  "der": 4315,
  "organization": 3029,
  "stadiums": 28244,
  "vi": 6819,
  "inscription": 9315,
  "endorsement": 20380,
  "##ccus": 27631,
  "ur": 24471,
  "collaborating": 20295,
  "handing": 13041,
  "[unused549]": 554,
  "scrapped": 14553,
  "scotch": 18937,
  "fed": 7349,
  "##igh": 18377,
  "terminates": 28790,
  "registering": 25719,
  "undertaking": 18457,
  "pun": 26136,
  "deception": 17575,
  "bradley": 8981,
  "losers": 23160,
  "messages": 7696,
  "fluorescent": 22184,
  "niger": 16842,
  "lawful": 26410,
  "sees": 5927,
  "hampton": 11615,
  "colombian": 13598,
  "garcia": 7439,
  "bisexual": 22437,
  "brake": 13428,
  "von": 3854,
  "\u3075": 1674,
  "##arina": 27943,
  "##gned": 19225,
  "loyalist": 23414,
  "promotes": 14067,
  "##ance": 6651,
  "##pati": 24952,
  "osaka": 13000,
  "slots": 19832,
  "ridiculous": 9951,
  "bentley": 15988,
  "##\u05d6": 29793,
  "pak": 22190,
  "wylie": 29152,
  "##wick": 7184,
  "##ils": 12146,
  "[unused361]": 366,
  "contribute": 9002,
  "memorabilia": 28663,
  "recruited": 8733,
  "##anov": 25417,
  "hayes": 10192,
  "eruptions": 28448,
  "mack": 11349,
  "silva": 11183,
  "slaves": 7179,
  "##hering": 22658,
  "sexuality": 13798,
  "dubious": 22917,
  "gust": 26903,
  "\u0447": 1202,
  "##miento": 28883,
  "gustav": 13430,
  "leadership": 4105,
  "rumours": 19200,
  "##point": 8400,
  "methyl": 25003,
  "##\u1d4f": 30037,
  "williams": 3766,
  "chiba": 27368,
  "situations": 8146,
  "characters": 3494,
  "##gon": 7446,
  "montenegrin": 24099,
  "##stov": 29473,
  "flinders": 29120,
  "\u5f8c": 1846,
  "basket": 10810,
  "clockwise": 22839,
  "##\u1105": 29994,
  "alla": 25699,
  "shipping": 7829,
  "wang": 7418,
  "##vial": 18660,
  "manchu": 26650,
  "30th": 13293,
  "fragment": 15778,
  "\u300a": 1639,
  "albums": 4042,
  "mills": 6341,
  "malik": 14360,
  "satisfied": 8510,
  "##hard": 11783,
  "sane": 22856,
  "##\u6e05": 30429,
  "jeremy": 7441,
  "##isen": 28992,
  "craig": 7010,
  "artifacts": 10471,
  "##\u0940": 29878,
  "atari": 18978,
  "##omba": 24991,
  "##ezer": 25733,
  "arroyo": 23882,
  "enrique": 15769,
  "equatorial": 21333,
  "glue": 25238,
  "mindanao": 23669,
  "##flow": 12314,
  "philharmonic": 12355,
  "##glia": 20011,
  "wits": 25433,
  "listening": 5962,
  "##bla": 28522,
  "indoors": 24274,
  "martini": 24480,
  "##\u5834": 30332,
  "box": 3482,
  "countered": 17970,
  "thailand": 6504,
  "smoked": 20482,
  "##mani": 20799,
  "mojo": 28017,
  "ironically": 18527,
  "pulled": 2766,
  "unsuccessful": 7736,
  "##mur": 20136,
  "lehman": 28444,
  "sandy": 7525,
  "montagu": 26241,
  "music": 2189,
  "below": 2917,
  "rely": 11160,
  "bianca": 18051,
  "\u027e": 1126,
  "trousers": 15292,
  "divert": 27345,
  "##wig": 16279,
  "easing": 24070,
  "holden": 9988,
  "lear": 26511,
  "mao": 15158,
  "md": 9108,
  "##eth": 11031,
  "##ttle": 26328,
  "\u1d50": 1502,
  "junior": 3502,
  "agreement": 3820,
  "[unused126]": 131,
  "camera": 4950,
  "inclusion": 10502,
  "##lberg": 22927,
  "##nus": 10182,
  "airs": 14369,
  "[unused722]": 727,
  "illustration": 14614,
  "obtaining": 11381,
  "tourist": 7538,
  "reinforcement": 23895,
  "trek": 10313,
  "aesthetics": 20749,
  "145": 13741,
  "##ingdon": 29138,
  "armour": 12371,
  "fascism": 23779,
  "[unused12]": 13,
  "certainly": 5121,
  "athena": 21880,
  "nicola": 17388,
  "bare": 6436,
  "easy": 3733,
  "terence": 22677,
  "##hini": 20535,
  "##\u300e": 30169,
  "kim": 5035,
  "##tten": 25970,
  "##lles": 20434,
  "74": 6356,
  "##\u0436": 29743,
  "campbell": 6063,
  "##lating": 22248,
  "households": 3911,
  "##ape": 24065,
  "[unused369]": 374,
  "##nes": 5267,
  "ahead": 3805,
  "congregational": 20809,
  "transcription": 14193,
  "coined": 13279,
  "kneeling": 16916,
  "frankie": 12784,
  "##59": 28154,
  "libya": 12917,
  "##\u0642": 29834,
  "[unused2]": 3,
  "excursion": 26144,
  "\u30b7": 1706,
  "vertically": 20018,
  "##vil": 14762,
  "salty": 23592,
  "segment": 6903,
  "##ndo": 15482,
  "hammer": 8691,
  "colombia": 7379,
  "223": 20802,
  "kinship": 27866,
  "nail": 13774,
  "##zoo": 23221,
  "preceding": 11003,
  "##lette": 27901,
  "li": 5622,
  "[unused163]": 168,
  "pea": 26034,
  "bromwich": 27888,
  "chandler": 13814,
  "kangaroo": 21652,
  "elton": 19127,
  "fabricated": 24212,
  "loco": 28046,
  "bethlehem": 19360,
  "##san": 8791,
  "##66": 28756,
  "featuring": 3794,
  "mom": 3566,
  "finishes": 12321,
  "basilica": 13546,
  "##odies": 27391,
  "dex": 20647,
  "intrusion": 24554,
  "supported": 3569,
  "tightening": 18711,
  "\u1d43": 1496,
  "nicely": 19957,
  "imminent": 17566,
  "arabs": 14560,
  "landfill": 28382,
  "nadu": 10703,
  "sanitation": 18723,
  "\u2093": 1563,
  "jefferson": 7625,
  "sanders": 12055,
  "hove": 25215,
  "rhineland": 21640,
  "airplanes": 24042,
  "tod": 28681,
  "hadley": 21681,
  "manager": 3208,
  "dwarves": 29281,
  "papacy": 25097,
  "jammed": 21601,
  "##\u9234": 30491,
  "[unused219]": 224,
  "bassist": 9858,
  "aldo": 28163,
  "somerville": 27209,
  "imaginary": 15344,
  "called": 2170,
  "controlled": 4758,
  "mount": 4057,
  "collector": 10018,
  "crosby": 14282,
  "tackle": 11147,
  "##\u30de": 30249,
  "arlington": 13929,
  "those": 2216,
  "etudes": 25041,
  "rams": 13456,
  "survivors": 8643,
  "rotary": 16933,
  "themes": 6991,
  "physicist": 13702,
  "template": 23561,
  "##ares": 17933,
  "scattering": 17501,
  "\u5973": 1815,
  "giacomo": 22873,
  "lgbt": 12010,
  "sparkling": 16619,
  "##liffe": 27931,
  "magdalena": 23984,
  "straightened": 11168,
  "##\u2122": 30108,
  "##\u03c5": 29735,
  "activity": 4023,
  "middletown": 28747,
  "pipeline": 13117,
  "##bau": 27773,
  "kingsley": 22819,
  "worthless": 22692,
  "780": 28601,
  "servicemen": 26714,
  "admissions": 20247,
  "chesapeake": 20867,
  "posters": 14921,
  "acids": 12737,
  "advances": 9849,
  "\u0e2d": 1421,
  "yin": 18208,
  "[unused897]": 902,
  "analyzed": 16578,
  "##ostal": 29381,
  "##rank": 26763,
  "##ppa": 13944,
  "commandant": 15254,
  "perfection": 15401,
  "uniform": 6375,
  "##\u221e": 30128,
  "ranger": 11505,
  "[unused246]": 251,
  "erich": 17513,
  "stroking": 14943,
  "##pins": 27915,
  "1750": 18171,
  "ernst": 10728,
  "##\u2218": 30126,
  "fae": 17282,
  "liquidation": 28763,
  "rainbow": 10098,
  "low": 2659,
  "train": 3345,
  "\u03c8": 1178,
  "strains": 18859,
  "##cana": 28621,
  "##run": 15532,
  "165": 13913,
  "horseshoe": 23449,
  "introduction": 4955,
  "uncertain": 9662,
  "\u529b": 1778,
  "##box": 8758,
  "roach": 20997,
  "\u624b": 1858,
  "save": 3828,
  "ut": 21183,
  "medical": 2966,
  "##sley": 8002,
  "being": 2108,
  "cyril": 16049,
  "governing": 8677,
  "richmond": 6713,
  "##iable": 19210,
  "tipped": 11182,
  "\u05e8": 1265,
  "drones": 24633,
  "\u110a": 1462,
  "noel": 10716,
  "convenient": 14057,
  "attitude": 7729,
  "causeway": 23336,
  "incline": 27461,
  "tangible": 24600,
  "##lase": 25002,
  "radcliffe": 22603,
  "reborn": 24910,
  "##adia": 25205,
  "sainte": 16947,
  "endangered": 10193,
  "susanna": 26681,
  "subgroup": 20576,
  "fishery": 22880,
  "rosemary": 18040,
  "stigma": 26453,
  "1709": 28955,
  "##hid": 27511,
  "vantage": 27274,
  "##tonic": 25009,
  "emma": 5616,
  "attempts": 4740,
  "##deck": 26547,
  "soviets": 15269,
  "##ega": 29107,
  "##station": 20100,
  "cabinets": 20053,
  "quoted": 9339,
  "vilnius": 20513,
  "goodness": 15003,
  "timor": 19746,
  "ethiopian": 15101,
  "carter": 5708,
  "intersections": 26540,
  "##ikh": 28209,
  "jens": 25093,
  "buys": 23311,
  "bracelet": 19688,
  "actually": 2941,
  "legitimate": 11476,
  "punjab": 9213,
  "greenwich": 13861,
  "amber": 8994,
  "categorized": 20427,
  "##oles": 29111,
  "beatty": 27305,
  "stills": 26105,
  "marital": 23143,
  "upon": 2588,
  "presbyterian": 10133,
  "##nies": 15580,
  "[unused732]": 737,
  "northampton": 15944,
  "deutsche": 11605,
  "rector": 10935,
  "##vio": 25500,
  "[unused290]": 295,
  "clive": 14675,
  "effort": 3947,
  "population": 2313,
  "##\u2282": 30137,
  "economies": 18730,
  "clawed": 22544,
  "adjoining": 13562,
  "crystals": 14438,
  "grossing": 18244,
  "radiating": 23229,
  "songwriter": 6009,
  "pediatric": 23614,
  "unmarried": 17204,
  "\u0989": 1350,
  "##riety": 27840,
  "crooked": 15274,
  "##\u0142a": 22972,
  "[unused292]": 297,
  "##lo": 4135,
  "stranger": 7985,
  "stuffed": 11812,
  "swore": 12860,
  "fred": 5965,
  "noble": 7015,
  "noises": 14950,
  "[unused763]": 768,
  "comedians": 25119,
  "gabrielle": 16988,
  "goose": 13020,
  "bluegrass": 21286,
  "##ven": 8159,
  "intermediate": 7783,
  "phone": 3042,
  "utc": 11396,
  "redemption": 18434,
  "reproductive": 15124,
  "penultimate": 25512,
  "astronomy": 12799,
  "idea": 2801,
  "warriors": 6424,
  "appreciated": 12315,
  "ascended": 19644,
  "showed": 3662,
  "universite": 22176,
  "twenty20": 22240,
  "##\u0996": 29890,
  "##sby": 14478,
  "locality": 10246,
  "xp": 26726,
  "##wu": 16050,
  "##brush": 18623,
  "cuthbert": 24583,
  "ascending": 22316,
  "\u5cf6": 1833,
  "providing": 4346,
  "mustered": 21900,
  "[unused983]": 988,
  "bun": 21122,
  "kosovo": 11491,
  "uphold": 27329,
  "inline": 23881,
  "physics": 5584,
  "##makers": 12088,
  "greatly": 6551,
  "##icative": 25184,
  "recognition": 5038,
  "##athan": 29246,
  "\u1102": 1456,
  "spire": 19823,
  "centers": 6401,
  "pillar": 14809,
  "##mut": 28120,
  "##ators": 18926,
  "goddamn": 16477,
  "bite": 6805,
  "##tya": 21426,
  "##\u092a": 29864,
  "##yck": 28377,
  "[unused27]": 28,
  "schizophrenia": 23683,
  "emptied": 21764,
  "reprised": 22598,
  "tray": 11851,
  "\u3053": 1655,
  "aaron": 7158,
  "demand": 5157,
  "scares": 29421,
  "mathematicians": 29374,
  "prisons": 15996,
  "undoubtedly": 17319,
  "tallinn": 21169,
  "blocking": 10851,
  "debating": 20767,
  "erroneously": 29411,
  "inherent": 16112,
  "mattress": 13342,
  "molly": 9618,
  "##hunter": 25629,
  "internacional": 27607,
  "[unused748]": 753,
  "##ouring": 27897,
  "glendale": 27649,
  "okinawa": 15052,
  "rouge": 12801,
  "[unused228]": 233,
  "##14": 16932,
  "380": 17014,
  "##\u5317": 30307,
  "124": 13412,
  "assist": 6509,
  "dead": 2757,
  "grafton": 28680,
  "larsen": 20094,
  "##\u967d": 30499,
  "lucrative": 21115,
  "amulet": 25087,
  "crop": 10416,
  "denies": 23439,
  "guo": 22720,
  "dolphin": 17801,
  "massachusetts": 4404,
  "plantations": 14979,
  "plata": 19534,
  "disputes": 11936,
  "mexico": 3290,
  "removing": 9268,
  "saving": 7494,
  "someday": 13834,
  "fantasy": 5913,
  "##iman": 18505,
  "1974": 3326,
  "fluent": 19376,
  "forearm": 16148,
  "careers": 10922,
  "modernism": 27254,
  "breached": 25769,
  "##rio": 9488,
  "##rable": 16670,
  "charges": 5571,
  "riddle": 21834,
  "##itor": 15660,
  "[unused280]": 285,
  "engage": 8526,
  "megan": 12756,
  "[unused862]": 867,
  "wexford": 23121,
  "jacobite": 28725,
  "##\u83ef": 30468,
  "stake": 8406,
  "##vitt": 28656,
  "daemon": 12828,
  "##sur": 26210,
  "between": 2090,
  "initiated": 7531,
  "\u10d5": 1443,
  "cast": 3459,
  "##\u52a0": 30305,
  "jobs": 5841,
  "##dner": 28001,
  "share": 3745,
  "\u05d8": 1249,
  "##\u0442": 22919,
  "avoided": 9511,
  "\u02e2": 1152,
  "preserving": 15224,
  "outreach": 15641,
  "prohibit": 23469,
  "iowa": 5947,
  "modern": 2715,
  "gordon": 5146,
  "tatum": 25913,
  "middlesex": 13654,
  "##co": 3597,
  "edit": 10086,
  "milne": 24377,
  "probable": 15596,
  "separation": 8745,
  "sore": 14699,
  "energy": 2943,
  "courier": 18092,
  "popped": 10538,
  "dough": 23126,
  "qin": 19781,
  "optimal": 15502,
  "##lane": 20644,
  "##neuve": 28104,
  "rated": 6758,
  "100th": 16919,
  "stirling": 15597,
  "intrigued": 18896,
  "severn": 24753,
  "[unused760]": 765,
  "signifies": 27353,
  "sequential": 25582,
  "sid": 15765,
  "silence": 4223,
  "##\u306a": 30193,
  "##pass": 15194,
  "wasted": 13842,
  "\u00df": 1096,
  "grandson": 7631,
  "domestic": 4968,
  "##mates": 15416,
  "buried": 3950,
  "conquered": 11438,
  "enemy": 4099,
  "[unused832]": 837,
  "dismantled": 17293,
  "drank": 10749,
  "culminating": 16979,
  "fatalities": 20871,
  "halftime": 22589,
  "sighed": 5489,
  "starr": 14330,
  "johann": 8968,
  "gains": 12154,
  "##ov": 4492,
  "eaton": 17642,
  "hiking": 13039,
  "required": 3223,
  "expressway": 11720,
  "futures": 17795,
  "raining": 24057,
  "450": 10332,
  "hosted": 4354,
  "seduction": 26962,
  "tyres": 24656,
  "duran": 22959,
  "arising": 17707,
  "tomas": 12675,
  "##cina": 28748,
  "blinding": 19709,
  "douglass": 27485,
  "guadalupe": 23529,
  "residences": 14094,
  "##igo": 14031,
  "##dam": 17130,
  "chapters": 9159,
  "outburst": 27719,
  "##hee": 21030,
  "##uls": 28426,
  "clutching": 14197,
  "scorpion": 22015,
  "caves": 10614,
  "breach": 12510,
  "buckingham": 17836,
  "gestures": 18327,
  "towers": 7626,
  "swedish": 4467,
  "kazan": 22001,
  "system": 2291,
  "elector": 20374,
  "netball": 25034,
  "mfa": 26913,
  "vulcan": 25993,
  "prosecutor": 12478,
  "barrels": 13826,
  "is": 2003,
  "tastes": 16958,
  "secretly": 10082,
  "brent": 12895,
  "##ash": 11823,
  "ultimatum": 29227,
  "scarlet": 11862,
  "##raus": 25965,
  "[unused50]": 51,
  "nikki": 14470,
  "peasants": 13193,
  "wounding": 27285,
  "equipment": 3941,
  "tyne": 17742,
  "##sable": 19150,
  "1650": 21875,
  "##cure": 23887,
  "##market": 20285,
  "complaining": 17949,
  "##torium": 24390,
  "olson": 21583,
  "conducts": 17976,
  "exempt": 11819,
  "suspected": 6878,
  "##bah": 24206,
  "[unused594]": 599,
  "genuinely": 15958,
  "imports": 17589,
  "boiling": 16018,
  "##oit": 28100,
  "eliot": 16292,
  "##\u209c": 30099,
  "entities": 11422,
  "\u02e3": 1153,
  "daddy": 8600,
  "persuade": 13984,
  "sheltered": 18304,
  "annual": 3296,
  "fisted": 28273,
  "endorsed": 11763,
  "##hta": 22893,
  "##\u2088": 30084,
  "breaths": 12938,
  "chrysler": 17714,
  "northern": 2642,
  "##jia": 26541,
  "writes": 7009,
  "stimuli": 22239,
  "belong": 7141,
  "##ttered": 14795,
  "##rak": 16555,
  "potato": 14557,
  "terminal": 5536,
  "##oton": 25862,
  "lange": 21395,
  "strasbourg": 18104,
  "fully": 3929,
  "\u1109": 1461,
  "##ink": 19839,
  "[unused591]": 596,
  "application": 4646,
  "babe": 11561,
  "wainwright": 25305,
  "##eric": 22420,
  "\u571f": 1801,
  "suez": 21974,
  "bloom": 13426,
  "contacted": 11925,
  "assess": 14358,
  "gesture": 9218,
  "wanted": 2359,
  "##ady": 18632,
  "publicized": 24928,
  "stung": 19280,
  "lecture": 8835,
  "anywhere": 5973,
  "sofia": 8755,
  "forts": 15421,
  "re": 2128,
  "sensed": 10596,
  "authorization": 20104,
  "neighborhoods": 11681,
  "roared": 14242,
  "france": 2605,
  "##\u8ecd": 30481,
  "mastering": 11495,
  "occurrences": 27247,
  "13": 2410,
  "barred": 15605,
  "##pan": 9739,
  "excavated": 15199,
  "insect": 14211,
  "citadel": 15364,
  "##clave": 23650,
  "devastated": 13879,
  "rogers": 7369,
  "##pp": 9397,
  "##yard": 14132,
  "##\u0281": 29694,
  "##\u03b7\u03c2": 29155,
  "combining": 11566,
  "##yne": 9654,
  "federally": 20892,
  "cisco": 26408,
  "waived": 16301,
  "south": 2148,
  "##raphy": 26228,
  "##ring": 4892,
  "114": 12457,
  "madeira": 27309,
  "episcopal": 9134,
  "tie": 5495,
  "escaped": 6376,
  "served": 2366,
  "##enburg": 12059,
  "chatter": 24691,
  "leg": 4190,
  "##onne": 18256,
  "family": 2155,
  "##\u0447": 29752,
  "yanking": 25716,
  "literature": 3906,
  "bilbao": 25427,
  "wilmington": 17025,
  "1680": 24621,
  "bar": 3347,
  "famously": 18172,
  "methane": 24481,
  "wizard": 10276,
  "##\u0e15": 29947,
  "1604": 28754,
  "oriented": 8048,
  "hangul": 19051,
  "##ddin": 18277,
  "##icular": 21412,
  "convoy": 9549,
  "##\u795e": 30451,
  "hostel": 21071,
  "dragged": 7944,
  "shouts": 15701,
  "\u9762": 1976,
  "chamberlain": 13904,
  "cole": 5624,
  "##pe": 5051,
  "vie": 20098,
  "farther": 8736,
  "michele": 15954,
  "##hell": 18223,
  "happiness": 8404,
  "##tc": 13535,
  "fallen": 5357,
  "finalist": 9914,
  "1658": 28944,
  "titled": 4159,
  "\u0563": 1221,
  "odessa": 19693,
  "seahawks": 21390,
  "##waite": 29601,
  "##ddle": 20338,
  "buzzing": 20386,
  "unfortunate": 15140,
  "administrator": 8911,
  "##iss": 14643,
  "angelo": 12262,
  "81": 6282,
  "mere": 8210,
  "##ace": 10732,
  "receivers": 19278,
  "elect": 11322,
  "##rdi": 17080,
  "inferior": 14092,
  "violently": 14196,
  "##aged": 18655,
  "dreams": 5544,
  "brutality": 24083,
  "##\u0dbd": 29942,
  "extreme": 6034,
  "##dun": 27584,
  "##\u044d": 29756,
  "gal": 14891,
  "confederation": 11078,
  "luxembourg": 10765,
  "witnessing": 24740,
  "obe": 15578,
  "anything": 2505,
  "##uttered": 23128,
  "publication": 4772,
  "albion": 13392,
  "mornings": 16956,
  "garments": 21902,
  "##cute": 26869,
  "spikes": 19547,
  "investigates": 28062,
  "undone": 25757,
  "##ivity": 7730,
  "superiors": 22983,
  "linked": 5799,
  "\u062f": 1278,
  "battled": 19787,
  "skinned": 19937,
  "1894": 6539,
  "pirates": 8350,
  "wyatt": 12986,
  "disapproval": 21406,
  "##lda": 15150,
  "##tra": 6494,
  "##\u062d": 29820,
  "baseline": 26163,
  "##anda": 13832,
  "##borough": 10235,
  "intellectuals": 17412,
  "[unused770]": 775,
  "robert": 2728,
  "##\u00d7": 26306,
  "carbon": 6351,
  "juniors": 16651,
  "dialect": 9329,
  "##nbc": 28957,
  "sonny": 13584,
  "[unused180]": 185,
  "aim": 6614,
  "ensures": 21312,
  "##\u3001": 30161,
  "ein": 16417,
  "gladstone": 21765,
  "crazy": 4689,
  "lizards": 23898,
  "bai": 21790,
  "##fm": 16715,
  "tortricidae": 27683,
  "uptown": 28539,
  "humiliation": 21171,
  "1714": 25241,
  "##turing": 16037,
  "bournemouth": 22882,
  "programming": 4730,
  "flop": 28583,
  "##work": 6198,
  "smelled": 9557,
  "##\u0254": 29679,
  "spark": 12125,
  "sumatra": 18262,
  "_": 1035,
  "shitty": 28543,
  "laborers": 23428,
  "look": 2298,
  "cone": 13171,
  "newark": 12948,
  "##vard": 25911,
  "[unused870]": 875,
  "boundary": 6192,
  "marguerite": 15334,
  "depending": 5834,
  "indications": 24936,
  "theoretical": 9373,
  "shudder": 18261,
  "##iface": 29164,
  "ozone": 26443,
  "blinds": 28279,
  "##ening": 7406,
  "minsk": 20790,
  "flies": 10029,
  "tre": 29461,
  "##scia": 27210,
  "creed": 16438,
  "blade": 6085,
  "integer": 16109,
  "##\u30c8": 30240,
  "endeavors": 28809,
  "dwyer": 29394,
  "hiroshima": 20168,
  "##amp": 16613,
  "fiesta": 24050,
  "crusaders": 18831,
  "##\u03bf\u03c2": 15297,
  "\u063a": 1289,
  "\u4e4b": 1749,
  "apartheid": 17862,
  "\u0964": 1344,
  "albanian": 9408,
  "wilson": 4267,
  "##factory": 21450,
  "15th": 6286,
  "cream": 6949,
  "##hly": 27732,
  "forgotten": 6404,
  "reassure": 24647,
  "[unused656]": 661,
  "empty": 4064,
  "caroline": 7981,
  "cords": 24551,
  "ironic": 19313,
  "##zone": 15975,
  "rouse": 27384,
  "solos": 24339,
  "##\u0580": 29784,
  "regaining": 28657,
  "99": 5585,
  "sign": 3696,
  "merger": 7660,
  "delightful": 26380,
  "gospel": 8036,
  "podium": 14502,
  "teachings": 12209,
  "##eit": 20175,
  "##\u535a": 30312,
  "away": 2185,
  "cobalt": 25627,
  "ruins": 8435,
  "agatha": 23863,
  "smoothing": 27045,
  "arun": 28217,
  "technique": 6028,
  "##imeter": 19198,
  "councils": 10784,
  "##oic": 19419,
  "##ctus": 22675,
  "converted": 4991,
  "floods": 14295,
  "publications": 5523,
  "\u091c": 1319,
  "hotels": 9275,
  "careless": 23358,
  "mixture": 8150,
  "##idae": 6096,
  "realms": 18814,
  "1902": 5774,
  "appellate": 23240,
  "bridge": 2958,
  "softly": 5238,
  "##37": 24434,
  "ik": 20912,
  "patterson": 12424,
  "vest": 17447,
  "##ost": 14122,
  "cosmic": 14448,
  "charts": 6093,
  "migrating": 28636,
  "[unused638]": 643,
  "retain": 9279,
  "soldiers": 3548,
  "crusader": 25237,
  "keller": 16155,
  "decent": 11519,
  "taxes": 7773,
  "meets": 6010,
  "\u0291": 1137,
  "daisy": 10409,
  "chatham": 16727,
  "profile": 6337,
  "\u2086": 1553,
  "##iti": 25090,
  "glider": 18788,
  "theorists": 28442,
  "madman": 28441,
  "vaccines": 28896,
  "palestinians": 21524,
  "[unused566]": 571,
  "gloss": 27068,
  "\u304d": 1652,
  "inwardly": 28710,
  "descent": 6934,
  "recommended": 6749,
  "weasel": 29268,
  "##en": 2368,
  "m3": 29061,
  "path": 4130,
  "##jet": 15759,
  "##sbury": 18065,
  "##\u3044": 30173,
  "ata": 29533,
  "adventist": 25696,
  "specifications": 15480,
  "topological": 24309,
  "lafayette": 14425,
  "waterford": 17769,
  "adolph": 28564,
  "hesitated": 9369,
  "##cave": 27454,
  "##\u05e3": 29806,
  "creamy": 24519,
  "##ppel": 27877,
  "spurred": 22464,
  "guessing": 16986,
  "italian": 3059,
  "sounding": 9391,
  "sublime": 28341,
  "activist": 7423,
  "interest": 3037,
  "bal": 28352,
  "##\u03bd": 16177,
  "resulting": 4525,
  "stripes": 13560,
  "##nding": 15683,
  "faber": 21720,
  "tornado": 11352,
  "##qual": 26426,
  "##atter": 20097,
  "999": 25897,
  "trails": 9612,
  "moving": 3048,
  "rotational": 25254,
  "##av": 11431,
  "##hri": 26378,
  "georges": 10870,
  "maize": 21154,
  "1612": 29186,
  "[unused575]": 580,
  "constance": 15713,
  "##tford": 26341,
  "holdings": 9583,
  "rubbing": 10137,
  "zeus": 15208,
  "preston": 8475,
  "galician": 28830,
  "training": 2731,
  "##icus": 14239,
  "philipp": 20765,
  "electricity": 6451,
  "hard": 2524,
  "haryana": 23261,
  "orchestras": 19505,
  "now": 2085,
  "classroom": 9823,
  "brothers": 3428,
  "sparks": 12300,
  "afghan": 12632,
  "erase": 22505,
  "housekeeper": 22583,
  "glove": 15913,
  "pedestrians": 24946,
  "roderick": 28326,
  "265": 20549,
  "loft": 19459,
  "jingle": 29262,
  "sentimental": 23069,
  "##rg": 10623,
  "##phic": 17926,
  "##vat": 22879,
  "rani": 21617,
  "\u0686": 1303,
  "gene": 4962,
  "[unused866]": 871,
  "logan": 6307,
  "stalked": 15858,
  "psychological": 8317,
  "updated": 7172,
  "key": 3145,
  "azores": 28320,
  "overthrow": 16857,
  "react": 10509,
  "utilized": 12550,
  "[unused735]": 740,
  "chan": 9212,
  "142": 16087,
  "yoga": 13272,
  "amelie": 25285,
  "assyrian": 19950,
  "protested": 11456,
  "\u062c": 1275,
  "##haya": 26115,
  "##asse": 27241,
  "##lan": 5802,
  "earn": 7796,
  "saw": 2387,
  "storage": 5527,
  "amman": 25703,
  "froze": 10619,
  "##uve": 22909,
  "terminology": 18444,
  "inmate": 24467,
  "ligament": 25641,
  "suppliers": 20141,
  "ca": 6187,
  "catholics": 10774,
  "airlines": 7608,
  "class": 2465,
  "##ount": 21723,
  "viruses": 18191,
  "eagles": 8125,
  "trent": 7990,
  "##truct": 18300,
  "chico": 22136,
  "measuring": 9854,
  "##\u2085": 30081,
  "thomson": 11161,
  "demonstrate": 10580,
  "##agh": 17988,
  "winthrop": 28974,
  "##sos": 17063,
  "##\u30b1": 30229,
  "succeeding": 13034,
  "plaques": 28487,
  "##vish": 24968,
  "356": 27509,
  "resort": 7001,
  "utter": 14395,
  "201": 16345,
  "land": 2455,
  "variation": 8386,
  "georg": 12062,
  "##\u30ce": 30243,
  "heraldic": 28867,
  "##gg": 13871,
  "propagation": 20594,
  "##\u79cb": 30455,
  "passion": 6896,
  "busiest": 20530,
  "provoked": 19157,
  "anand": 18887,
  "fracture": 19583,
  "thrash": 27042,
  "##\u1d9c": 30046,
  "melodies": 16106,
  "pneumonia": 18583,
  "notes": 3964,
  "biography": 8308,
  "westwood": 21730,
  "##oca": 24755,
  "ceased": 7024,
  "conglomerate": 22453,
  "layla": 19786,
  "##lco": 22499,
  "[unused818]": 823,
  "archie": 13255,
  "callum": 15229,
  "shy": 11004,
  "superintendent": 9133,
  "##krishna": 23017,
  "##\u90e1": 30485,
  "civilization": 10585,
  "[unused45]": 46,
  "##ysis": 20960,
  "##\u5bae": 30350,
  "anatolia": 23747,
  "ceylon": 16447,
  "resist": 9507,
  "##sford": 17658,
  "emotionally": 14868,
  "[unused839]": 844,
  "soaring": 23990,
  "learning": 4083,
  "nominate": 23388,
  "sous": 27411,
  "carthage": 21959,
  "407": 28941,
  "ping": 17852,
  "qui": 21864,
  "shuttle": 10382,
  "##wee": 28394,
  "\u0582": 1238,
  "cattle": 7125,
  "economical": 21791,
  "hari": 21291,
  "christi": 21359,
  "claims": 4447,
  "wonderland": 20365,
  "##kins": 14322,
  "arsenic": 29596,
  "guido": 20239,
  "##cious": 18436,
  "##qing": 19784,
  "fate": 6580,
  "curses": 23897,
  "holiday": 6209,
  "##lom": 21297,
  "calculate": 18422,
  "bravery": 16534,
  "surrey": 9948,
  "threw": 4711,
  "pending": 14223,
  "##zza": 20715,
  "kicker": 22652,
  "##stock": 14758,
  "headmaster": 16296,
  "discovery": 5456,
  "vp": 21210,
  "dove": 10855,
  "crippled": 24433,
  "breakaway": 26321,
  "swelling": 18348,
  "announcing": 13856,
  "vu": 24728,
  "wherein": 16726,
  "impairment": 25172,
  "surged": 18852,
  "##kle": 19099,
  "mccormick": 23213,
  "[unused171]": 176,
  "charred": 29030,
  "rests": 16626,
  "grammatical": 24402,
  "seats": 4272,
  "alloys": 28655,
  "overdose": 26641,
  "trenton": 17148,
  "341": 28358,
  "symphony": 6189,
  "orion": 18747,
  "aristocratic": 19774,
  "die": 3280,
  "fitness": 10516,
  "vanilla": 21161,
  "cyclist": 14199,
  "following": 2206,
  "baritone": 14458,
  "\u0576": 1231,
  "intend": 13566,
  "lined": 7732,
  "handel": 21465,
  "there": 2045,
  "enthusiastically": 24935,
  "lineage": 13321,
  "forestry": 13116,
  "bubba": 19606,
  "paso": 17161,
  "gorman": 25693,
  "##lam": 10278,
  "customized": 28749,
  "##ntine": 26730,
  "specimen": 11375,
  "cleveland": 6044,
  "chennai": 12249,
  "191": 19871,
  "sounds": 4165,
  "##pper": 18620,
  "surgeons": 16804,
  "adolescent": 20274,
  "##aud": 19513,
  "albanians": 25267,
  "eritrea": 26040,
  "totaled": 23596,
  "##rrado": 27933,
  "sapphire": 21965,
  "introductions": 25795,
  "pieces": 4109,
  "##odes": 19847,
  "invasive": 17503,
  "lacks": 14087,
  "\u798f": 1926,
  "##oma": 9626,
  "theorist": 24241,
  "gettysburg": 22577,
  "##'": 29618,
  "ants": 16111,
  "increase": 3623,
  "##llis": 21711,
  "ambiguity": 27637,
  "adventurer": 29506,
  "ego": 13059,
  "slab": 17584,
  "commuter": 14334,
  "versions": 4617,
  "ballot": 10428,
  "[unused635]": 640,
  "saturdays": 18860,
  "absorb": 16888,
  "mention": 5254,
  "##\u0b9a": 29919,
  "lesson": 10800,
  "notice": 5060,
  "##ibe": 20755,
  "notre": 10289,
  "dutch": 3803,
  "glared": 9400,
  "1689": 22685,
  "##rkin": 26891,
  "[unused525]": 530,
  "instructor": 9450,
  "[unused482]": 487,
  "punjabi": 17498,
  "banded": 25264,
  "cheering": 24867,
  "geography": 10505,
  "blindness": 26290,
  "##kk": 19658,
  "##trix": 29184,
  "garage": 7381,
  "neurons": 15698,
  "z": 1062,
  "lindsay": 12110,
  "allegheny": 21192,
  "establishing": 7411,
  "investigation": 4812,
  "tracy": 10555,
  "##ated": 4383,
  "americans": 4841,
  "danny": 6266,
  "##tin": 7629,
  "##ciful": 26336,
  "containing": 4820,
  "##gue": 9077,
  "peers": 12746,
  "question": 3160,
  "josh": 6498,
  "##haus": 13821,
  "fewer": 8491,
  "narration": 21283,
  "##35": 19481,
  "##xley": 20959,
  "conferred": 15186,
  "deux": 24756,
  "telegram": 23921,
  "couldn": 2481,
  "alert": 9499,
  "liang": 16982,
  "ushered": 23815,
  "warns": 19428,
  "hypnotic": 28322,
  "sanity": 20039,
  "sh": 14021,
  "alcohol": 6544,
  "\uff0c": 1989,
  "##hum": 28600,
  "refined": 15514,
  "domains": 13100,
  "silhouette": 21776,
  "##antes": 24985,
  "center": 2415,
  "tess": 15540,
  "poznan": 18320,
  "borne": 15356,
  "forewings": 13211,
  "hey": 4931,
  "foo": 29379,
  "kiev": 12100,
  "\u6a39": 1884,
  "gi": 21025,
  "##\u09af": 29907,
  "billboard": 4908,
  "malcolm": 8861,
  "wreath": 29586,
  "##\u5927": 30336,
  "##hoe": 14490,
  "##bella": 21700,
  "##ulsion": 23316,
  "whirled": 17097,
  "##ht": 11039,
  "parochial": 28773,
  "specialists": 15744,
  "navigator": 20532,
  "willy": 16172,
  "reflected": 7686,
  "theodor": 21448,
  "achievements": 10106,
  "##to": 3406,
  "could": 2071,
  "angelica": 19458,
  "polar": 11508,
  "outta": 24955,
  "hit": 2718,
  "winner": 3453,
  "[unused501]": 506,
  "successively": 24288,
  "##\u00aa": 29653,
  "##shah": 25611,
  "[unused356]": 361,
  "enigma": 26757,
  "hugo": 9395,
  "tae": 22297,
  "|": 1064,
  "##\u0433": 29741,
  "caesar": 11604,
  "##hole": 11484,
  "consecration": 24730,
  "lamp": 10437,
  "\u967d": 1973,
  "franchises": 22506,
  "resided": 12427,
  "brotherhood": 12865,
  "##urized": 28405,
  "concessions": 20638,
  "second": 2117,
  "1810": 11786,
  "promotions": 15365,
  "&": 1004,
  "melee": 27868,
  "tribune": 10969,
  "spontaneously": 27491,
  "vinegar": 29387,
  "threatening": 8701,
  "leo": 6688,
  "charm": 11084,
  "supervision": 10429,
  "##ups": 22264,
  "koch": 15259,
  "314": 26257,
  "continuation": 13633,
  "employer": 11194,
  "##mm": 7382,
  "ve": 2310,
  "unprecedented": 15741,
  "estuary": 18056,
  "preferring": 21393,
  "unavailable": 20165,
  "legislature": 6372,
  "##rites": 28884,
  "approaching": 8455,
  "intimidating": 24439,
  "##rogate": 21799,
  "distressed": 24305,
  "motionless": 19917,
  "possessions": 13689,
  "straightforward": 19647,
  "##nir": 29339,
  "##aks": 29243,
  "##vu": 19722,
  "\u30a2": 1693,
  "##head": 4974,
  "devices": 5733,
  "[unused914]": 919,
  "##leg": 23115,
  "vulnerable": 8211,
  "caf": 24689,
  "[unused181]": 186,
  "risking": 26875,
  "nt": 23961,
  "##anza": 16076,
  "cooking": 8434,
  "distortion": 20870,
  "pasadena": 18880,
  "unemployed": 18787,
  "\u8ecd": 1955,
  "fragmentation": 28424,
  "noted": 3264,
  "triangular": 14023,
  "ssr": 20896,
  "debate": 5981,
  "sponge": 25742,
  "entity": 9178,
  "hop": 6154,
  "flexibility": 16991,
  "deep": 2784,
  "engineering": 3330,
  "festival": 2782,
  "##nese": 14183,
  "calculating": 20177,
  "museo": 19713,
  "archer": 11024,
  "persia": 16667,
  "##pres": 28994,
  "backlash": 25748,
  "historians": 7862,
  "parades": 26635,
  "##ess": 7971,
  "##idia": 29342,
  "##amps": 25167,
  "271": 25103,
  "broncos": 14169,
  "hostilities": 17601,
  "1653": 29309,
  "lina": 27022,
  "brunei": 18692,
  "nicky": 20158,
  "##orne": 23846,
  "sienna": 20210,
  "what": 2054,
  "muttered": 6250,
  "ib": 21307,
  "constable": 12294,
  "drainage": 11987,
  "fellows": 13572,
  "[unused352]": 357,
  "abbreviation": 22498,
  "welding": 23604,
  "ella": 11713,
  "kuala": 15490,
  "filtering": 22910,
  "##\u0192": 29675,
  "gritted": 17307,
  "sanitary": 25480,
  "1628": 28627,
  "fenton": 27096,
  "adds": 9909,
  "arbor": 19679,
  "pouch": 21445,
  "georgetown": 12982,
  "kingdom": 2983,
  "occupies": 14133,
  "##cloth": 23095,
  "metals": 11970,
  "##ud": 6784,
  "bolton": 12118,
  "enduring": 16762,
  "rumbled": 22257,
  "cinematographer": 19245,
  "##vir": 21663,
  "\u897f": 1947,
  "shoe": 10818,
  "females": 3801,
  "mn": 24098,
  "pulsed": 24107,
  "manifold": 19726,
  "\u0f63": 1435,
  "scientists": 6529,
  "brooding": 28902,
  "##ulio": 24825,
  "parsons": 13505,
  "hawks": 12505,
  "titan": 16537,
  "92": 6227,
  "##\u3084": 30208,
  "[unused400]": 405,
  "alzheimer": 21901,
  "selective": 13228,
  "##\u2202": 30120,
  "facing": 5307,
  "##beat": 19442,
  "envoy": 19918,
  "seminar": 18014,
  "##mite": 23419,
  "ecology": 13517,
  "##raphic": 20721,
  "narrowing": 21978,
  "primary": 3078,
  "farrell": 16248,
  "slipping": 11426,
  "stubble": 26816,
  "1778": 16331,
  "##ped": 5669,
  "rebellion": 7417,
  "thwarted": 28409,
  "sentiment": 15792,
  "##sham": 21010,
  "agnes": 11166,
  "410": 19151,
  "rumors": 11256,
  "sorcerer": 23324,
  "##\u043c": 29745,
  "440": 17422,
  "##ype": 18863,
  "registry": 15584,
  "fears": 10069,
  "##sco": 9363,
  "2001": 2541,
  "wrapping": 12252,
  "orleans": 5979,
  "emitted": 22627,
  "inhabit": 21490,
  "twitching": 25402,
  "whoa": 23281,
  "mohan": 18529,
  "representation": 6630,
  "motorcycle": 9055,
  "\u672c": 1876,
  "##stown": 13731,
  "yusuf": 23495,
  "circulated": 17640,
  "[unused946]": 951,
  "slogan": 14558,
  "pepsi": 27237,
  "\u0575": 1230,
  "dual": 7037,
  "krishna": 10871,
  "impending": 17945,
  "jesus": 4441,
  "purely": 11850,
  "##llo": 7174,
  "hook": 8103,
  "rpm": 11575,
  "freeze": 13184,
  "ambitious": 12479,
  "\u1019": 1437,
  "37": 4261,
  "##upt": 29441,
  "coherent": 18920,
  "##\u2264": 30135,
  "##zano": 24147,
  "##nx": 26807,
  "##\u3080": 30205,
  "specification": 12827,
  "incorporating": 13543,
  "liable": 20090,
  "tossing": 15021,
  "luisa": 25412,
  "thereby": 8558,
  "poly": 26572,
  "50th": 12951,
  "ousted": 28368,
  "products": 3688,
  "\u30df": 1724,
  "suspect": 8343,
  "anthropologist": 21571,
  "[unused667]": 672,
  "copa": 10613,
  "\u025b": 1115,
  "sidewalk": 11996,
  "remnant": 19614,
  "hawke": 24882,
  "##ida": 8524,
  "sai": 18952,
  "alliances": 21277,
  "ostensibly": 23734,
  "budget": 5166,
  "grupo": 26678,
  "##\u3053": 30181,
  "highlighting": 20655,
  "dock": 8946,
  "##get": 18150,
  "thereafter": 6920,
  "##\u2084": 17004,
  "owning": 19273,
  "rochester": 10541,
  "smashing": 21105,
  "[unused364]": 369,
  "##\u624c": 30385,
  "##ies": 3111,
  "1603": 25625,
  "##tops": 25181,
  "aquino": 24183,
  "found": 2179,
  "infrastructure": 6502,
  "wellington": 8409,
  "nba": 6452,
  "##ological": 10091,
  "activism": 16841,
  "352": 28906,
  "drink": 4392,
  "nik": 23205,
  "myriad": 25028,
  "uncles": 27328,
  "warships": 15964,
  "breast": 7388,
  "crown": 4410,
  "info": 18558,
  "##dalen": 26414,
  "stefan": 8852,
  "architects": 8160,
  "max": 4098,
  "proportion": 10817,
  "##ography": 9888,
  "##tium": 16398,
  "mckay": 16225,
  "##rem": 28578,
  "##was": 17311,
  "\u7684": 1916,
  "convinced": 6427,
  "vivo": 24269,
  "##ep": 13699,
  "##cene": 17968,
  "##vez": 26132,
  "##\u060c": 29814,
  "miller": 4679,
  "exclaimed": 12713,
  "verity": 22178,
  "##ags": 26454,
  "188": 19121,
  "stacked": 16934,
  "\u548c": 1796,
  "cultivated": 13237,
  "knob": 16859,
  "performed": 2864,
  "##lynn": 27610,
  "noticed": 4384,
  "##42": 20958,
  "nord": 13926,
  "alexei": 21219,
  "perrin": 28106,
  "personnel": 5073,
  "decorated": 7429,
  "turn": 2735,
  "fia": 19807,
  "suggestions": 15690,
  "[unused182]": 187,
  "bible": 6331,
  "parents": 3008,
  "vhs": 17550,
  "##oa": 10441,
  "451": 28161,
  "serbia": 7238,
  "newport": 9464,
  "dna": 6064,
  "engulfed": 24692,
  "brewery": 12161,
  "spanish": 3009,
  "splash": 17624,
  "##cino": 21081,
  "unionist": 17104,
  "handicap": 15822,
  "tb": 26419,
  "photographs": 7008,
  "zhang": 9327,
  "##ieving": 25587,
  "##kia": 21128,
  "most": 2087,
  "twinkle": 29038,
  "accounting": 9529,
  "[unused68]": 69,
  "brewers": 20007,
  "inexperienced": 26252,
  "kerala": 8935,
  "\u2297": 1613,
  "herbal": 27849,
  "ao": 20118,
  "messaging": 24732,
  "futuristic": 28971,
  "calder": 19347,
  "sonia": 16244,
  "simpsons": 19047,
  "steppe": 29096,
  "\u6cbb": 1900,
  "demolished": 7002,
  "electromagnetic": 17225,
  "six": 2416,
  "##aris": 23061,
  "improved": 5301,
  "associate": 5482,
  "uruguayan": 23464,
  "undrafted": 21347,
  "ignored": 6439,
  "ropes": 14607,
  "##port": 6442,
  "visited": 4716,
  "hoping": 5327,
  "sectional": 27197,
  "olga": 15585,
  "use": 2224,
  "took": 2165,
  "##ously": 13453,
  "##gio": 11411,
  "blinded": 20641,
  "boxed": 27554,
  "##ssee": 29522,
  "angle": 6466,
  "##ini": 5498,
  "funeral": 6715,
  "arkansas": 6751,
  "1931": 4739,
  "blank": 8744,
  "##week": 28075,
  "sphere": 10336,
  "978": 4891,
  "nonprofit": 14495,
  "blurred": 18449,
  "##sw": 26760,
  "token": 19204,
  "##\u062c": 29819,
  "heroic": 14779,
  "pacific": 3534,
  "stagecoach": 26025,
  "85": 5594,
  "dune": 21643,
  "agent": 4005,
  "swayed": 20122,
  "mediated": 19872,
  "echoing": 17142,
  "rings": 7635,
  "imported": 10964,
  "semitic": 20604,
  "[unused631]": 636,
  "definitely": 5791,
  "##yi": 10139,
  "##\u0628": 29816,
  "shuffle": 23046,
  "[unused721]": 726,
  "##8": 2620,
  "buddies": 24115,
  "fluffy": 27036,
  "bertrand": 20586,
  "##bry": 25731,
  "##creen": 24410,
  "##grounds": 28951,
  "##rmed": 29540,
  "mba": 15038,
  "armored": 10612,
  "bunk": 25277,
  "levin": 20206,
  "estimation": 24155,
  "heterosexual": 28229,
  "##\u092c": 29865,
  "##bound": 15494,
  "operating": 4082,
  "[unused947]": 952,
  "blair": 10503,
  "remarkably": 17431,
  "##tify": 27351,
  "[unused607]": 612,
  "intensive": 11806,
  "digits": 16648,
  "##zing": 6774,
  "rebellious": 22614,
  "dungeon": 16633,
  "attribute": 17961,
  "piece": 3538,
  "[unused877]": 882,
  "242": 22431,
  "pixels": 27725,
  "veterans": 8244,
  "reproduction": 14627,
  "happen": 4148,
  "praises": 27128,
  "##ivision": 24607,
  "trip": 4440,
  "synonym": 10675,
  "[unused578]": 583,
  "dressing": 11225,
  "vital": 8995,
  "ras": 20710,
  "mazda": 25286,
  "coptic": 27672,
  "bottle": 5835,
  "stairwell": 22109,
  "continuous": 7142,
  "czechoslovak": 21282,
  "freud": 19338,
  "\u5bfa": 1827,
  "lucan": 20764,
  "[unused271]": 276,
  "credentials": 22496,
  "shut": 3844,
  "catch": 4608,
  "brighton": 10309,
  "constitutional": 6543,
  "reader": 8068,
  "slamming": 15209,
  "amused": 11770,
  "thin": 4857,
  "##ram": 6444,
  "alongside": 4077,
  "carpathian": 26349,
  "instantly": 6880,
  "##ucher": 22368,
  "joint": 4101,
  "electorate": 13694,
  "poker": 11662,
  "magnetic": 8060,
  "1971": 3411,
  "##\u4e95": 30280,
  "drew": 3881,
  "mrna": 28848,
  "vance": 16672,
  "components": 6177,
  "connie": 16560,
  "##ta": 2696,
  "biker": 28988,
  "sticky": 15875,
  "syndicate": 16229,
  "##dou": 26797,
  "hilda": 21589,
  "relieve": 15804,
  "emanuel": 21135,
  "##rar": 19848,
  "devastating": 14886,
  "##\u10d2": 29976,
  "##oum": 24778,
  "##vey": 12417,
  "dug": 8655,
  "prussian": 10734,
  "[unused537]": 542,
  "[unused390]": 395,
  "##hrer": 17875,
  "adjusted": 10426,
  "glenn": 9465,
  "pagan": 14318,
  "##lent": 16136,
  "heritage": 4348,
  "grant": 3946,
  "waterway": 23668,
  "obvious": 5793,
  "wince": 29585,
  "journal": 3485,
  "##oids": 17086,
  "66": 5764,
  "conversations": 11450,
  "retaliation": 18695,
  "1807": 13206,
  "tractor": 16358,
  "berkeley": 8256,
  "\u30a8": 1698,
  "hannah": 8410,
  "auckland": 8666,
  "modernist": 19770,
  "inorganic": 28256,
  "widespread": 6923,
  "locals": 10575,
  "##lid": 21273,
  "##gia": 10440,
  "##mental": 26901,
  "##dee": 26095,
  "hoarse": 21221,
  "jameson": 22324,
  "82": 6445,
  "46th": 27990,
  "dictionary": 9206,
  "nirvana": 26530,
  "[unused399]": 404,
  "##etz": 26327,
  "1707": 25029,
  "[unused18]": 19,
  "alter": 11477,
  "eggs": 6763,
  "manufacturers": 8712,
  "##/": 29626,
  "##lese": 24527,
  "\u0574": 1229,
  "mint": 12927,
  "colorado": 5169,
  "\u5bbf": 1826,
  "pursed": 21954,
  "[unused847]": 852,
  "##fra": 27843,
  "##inator": 23207,
  "##re": 2890,
  "mounted": 5614,
  "[unused125]": 130,
  "[unused936]": 941,
  "worst": 5409,
  "##maid": 28478,
  "marylebone": 28537,
  "##giri": 23243,
  "investment": 5211,
  "eddy": 16645,
  "sentencing": 23280,
  "specialty": 12233,
  "synthesizer": 13564,
  "huts": 23326,
  "brutally": 23197,
  "tow": 15805,
  "oboe": 22523,
  "resumed": 7943,
  "##bos": 15853,
  "hell": 3109,
  "gardening": 21529,
  "systems": 3001,
  "transvaal": 28336,
  "understands": 19821,
  "samba": 29086,
  "hammond": 11309,
  "sophia": 9665,
  "\u0449": 1204,
  "##\u2098": 30096,
  "aspiring": 22344,
  "denton": 23906,
  "bounced": 13605,
  "rhapsody": 29395,
  "vinci": 23765,
  "\u00a3": 1069,
  "##wives": 23744,
  "hoffmann": 24437,
  "##ulus": 11627,
  "journals": 9263,
  "christy": 21550,
  "ukrainian": 5969,
  "[unused655]": 660,
  "burials": 23109,
  "asbestos": 29191,
  "renovation": 10525,
  "bran": 24905,
  "madison": 7063,
  "ngo": 17895,
  "pieter": 23759,
  "trades": 14279,
  "jun": 12022,
  "\u03c3": 1173,
  "##\u3009": 30164,
  "resigning": 24642,
  "spoke": 3764,
  "catholic": 3234,
  "england": 2563,
  "authoritative": 23949,
  "##gi": 5856,
  "develops": 11791,
  "##bourg": 20431,
  "kyrgyzstan": 23209,
  "##anus": 20849,
  "[unused550]": 555,
  "constabulary": 23791,
  "undefeated": 15188,
  "##tain": 18249,
  "society": 2554,
  "##fixed": 23901,
  "##rmin": 27512,
  "islamic": 5499,
  "zealand": 3414,
  "pigeon": 16516,
  "\u1165": 1472,
  "acknowledged": 8969,
  "benedictine": 21139,
  "troubles": 13460,
  "##ane": 7231,
  "marvin": 13748,
  "inquiries": 27050,
  "##we": 8545,
  "measured": 7594,
  "twists": 21438,
  "affect": 7461,
  "villas": 27317,
  "navy": 3212,
  "wilkes": 20635,
  "abbess": 28010,
  "logs": 15664,
  "emphasizes": 20618,
  "performances": 4616,
  "merchant": 6432,
  "##lf": 10270,
  "[unused959]": 964,
  "ice": 3256,
  "puerto": 5984,
  "nrl": 20686,
  "[unused105]": 110,
  "\u2228": 1603,
  "intent": 7848,
  "backseat": 19978,
  "avoiding": 9992,
  "##liness": 20942,
  "rubs": 28860,
  "stops": 6762,
  "segunda": 19071,
  "regular": 3180,
  "stammered": 28532,
  "interpret": 17841,
  "[unused360]": 365,
  "##rted": 17724,
  "cheered": 25471,
  "hopefully": 11504,
  "shifted": 5429,
  "corinne": 26879,
  "##code": 16044,
  "1000": 6694,
  "confirmation": 13964,
  "lectured": 19206,
  "archbishop": 6507,
  "ck": 23616,
  "os": 9808,
  "overlooking": 12549,
  "helped": 3271,
  "communes": 16569,
  "##peration": 29487,
  "enthusiastic": 14727,
  "repair": 7192,
  "vita": 19300,
  "surgical": 11707,
  "neural": 15756,
  "##room": 9954,
  "##cide": 27082,
  "ashamed": 14984,
  "\u5289": 1777,
  "reconstructed": 14858,
  "rammed": 27653,
  "argyll": 27365,
  "##yed": 20821,
  "volunteered": 14382,
  "\u0f58": 1432,
  "##\u00a2": 29645,
  "[unused769]": 774,
  "perch": 21836,
  "\u5e73": 1839,
  "bliss": 13670,
  "sixth": 4369,
  "##xed": 19068,
  "[unused965]": 970,
  "##athlon": 17563,
  "crete": 19111,
  "princeton": 9173,
  "factual": 25854,
  "bolt": 10053,
  "mineral": 9754,
  "bullet": 7960,
  "##ume": 17897,
  "rocked": 14215,
  "waterfall": 14297,
  "sobs": 21503,
  "bowman": 19298,
  "bringing": 5026,
  "maids": 29229,
  "wolfgang": 13865,
  "seeds": 8079,
  "signals": 7755,
  "xander": 29019,
  "##wny": 22251,
  "routine": 9410,
  "##hot": 12326,
  "dismissal": 15322,
  "aspect": 7814,
  "gymnast": 25055,
  "nobel": 10501,
  "unaware": 11499,
  "comforting": 16334,
  "petitions": 24320,
  "kat": 10645,
  "##es": 2229,
  "##lass": 27102,
  "dig": 10667,
  "##garh": 13484,
  "##tua": 26302,
  "chairman": 3472,
  "friar": 25287,
  "determination": 9128,
  "bartender": 15812,
  "##\u0921": 29857,
  "fictitious": 23577,
  "219": 20636,
  "knox": 11994,
  "executing": 23448,
  "academy": 2914,
  "kernel": 16293,
  "still": 2145,
  "doctors": 7435,
  "domain": 5884,
  "arrange": 13621,
  "stretched": 7121,
  "dummy": 24369,
  "##rth": 15265,
  "gift": 5592,
  "[unused46]": 47,
  "\u0459": 1215,
  "##gies": 17252,
  "lds": 17627,
  "\u306c": 1669,
  "parent": 6687,
  "##tly": 14626,
  "laps": 10876,
  "##\u5357": 30311,
  "atkinson": 18646,
  "##ossa": 21842,
  "base": 2918,
  "matrix": 8185,
  "partial": 7704,
  "chang": 11132,
  "intervention": 8830,
  "tainted": 26392,
  "counseling": 17041,
  "ortiz": 19439,
  "##ythe": 26688,
  "u2": 23343,
  "biologist": 21477,
  "##\u5341": 30309,
  "independently": 9174,
  "misses": 22182,
  "giuseppe": 12574,
  "keys": 6309,
  "pages": 5530,
  "scents": 29254,
  "speaker": 5882,
  "tha": 22794,
  "tilting": 21788,
  "superficial": 23105,
  "territory": 3700,
  "muscular": 13472,
  "gleamed": 25224,
  "tran": 25283,
  "banks": 5085,
  "[unused685]": 690,
  "##\u05e8": 29811,
  "relocate": 20102,
  "ways": 3971,
  "\u043d": 1192,
  "currents": 14731,
  "kent": 5982,
  "strand": 11226,
  "jackie": 9901,
  "57": 5401,
  "postseason": 17525,
  "scholarly": 12683,
  "secured": 7119,
  "abstraction": 24504,
  "maison": 26420,
  "bordeaux": 16384,
  "339": 28977,
  "excitedly": 23885,
  "##zd": 26494,
  "[unused315]": 320,
  "trap": 8132,
  "undertake": 16617,
  "kris": 19031,
  "\u043c": 1191,
  "tobin": 28096,
  "ebert": 22660,
  "\u76ee": 1918,
  "later": 2101,
  "##zquez": 22938,
  "notebook": 14960,
  "gu": 19739,
  "federal": 2976,
  "soy": 25176,
  "afc": 10511,
  "brief": 4766,
  "mcnamara": 28340,
  "writ": 25697,
  "burger": 15890,
  "periphery": 23275,
  "radically": 25796,
  "spend": 5247,
  "##iers": 10136,
  "romanesque": 17135,
  "##dae": 6858,
  "mercy": 8673,
  "##ances": 26755,
  "##\u0446": 29751,
  "wait": 3524,
  "crops": 8765,
  "imperative": 23934,
  "##grade": 24170,
  "comprised": 11539,
  "stunned": 9860,
  "##yd": 25688,
  "attaining": 26615,
  "##bular": 28808,
  "##\u0bbe": 29931,
  "305": 20405,
  "##cans": 26642,
  "estimates": 10035,
  "surprises": 20096,
  "bubbling": 25054,
  "fordham": 27302,
  "sabrina": 21876,
  "##ados": 28118,
  "caden": 23600,
  "tease": 18381,
  "commune": 5715,
  "reasons": 4436,
  "signatures": 16442,
  "'": 1005,
  "salsa": 26509,
  "montgomery": 8482,
  "pollard": 25513,
  "faced": 4320,
  "astrid": 27376,
  "rebound": 27755,
  "bryant": 12471,
  "princely": 22771,
  "uncover": 26944,
  "gnu": 27004,
  "pink": 5061,
  "##gration": 29397,
  "ponce": 21085,
  "messenger": 11981,
  "hub": 9594,
  "today": 2651,
  "remarked": 10783,
  "warfare": 8309,
  "ara": 19027,
  "carpets": 27997,
  "rhodes": 10588,
  "blaze": 15347,
  "enthusiasts": 20305,
  "successor": 6332,
  "fl": 13109,
  "[unused925]": 930,
  "credible": 23411,
  "complimented": 27175,
  "denomination": 18683,
  "darted": 14051,
  "alba": 18255,
  "##lete": 25890,
  "accepting": 10564,
  "lyman": 27587,
  "ventures": 13252,
  "\u06cc": 1309,
  "maguire": 26196,
  "explained": 4541,
  "nl": 17953,
  "bars": 6963,
  "##sic": 19570,
  "forbid": 27206,
  "herbert": 7253,
  "ridden": 15230,
  "intercity": 20651,
  "##ske": 17140,
  "1759": 21667,
  "argus": 25294,
  "sunlight": 9325,
  "##wife": 19993,
  "conservation": 5680,
  "##iste": 27870,
  "borrowed": 11780,
  "clever": 12266,
  "temples": 8436,
  "intermittent": 23852,
  "revelations": 22191,
  "westchester": 25489,
  "##rate": 11657,
  "years": 2086,
  "hollywood": 5365,
  "##jured": 26949,
  "wigan": 15598,
  "february": 2337,
  "elves": 16980,
  "thought": 2245,
  "deal": 3066,
  "adaptation": 6789,
  "negligence": 27988,
  "##pus": 12207,
  "fiscal": 10807,
  "differentiate": 21032,
  "grille": 26192,
  "by": 2011,
  "roberts": 7031,
  "##ter": 3334,
  "[unused142]": 147,
  "##\u099b": 29893,
  "##oz": 18153,
  "[PAD]": 0,
  "creep": 19815,
  "feed": 5438,
  "takes": 3138,
  "##hli": 27766,
  "jonas": 10680,
  "interviewing": 27805,
  "freaked": 22783,
  "advancing": 10787,
  "##rey": 15202,
  "167": 16785,
  "about": 2055,
  "agreed": 3530,
  "skipping": 25978,
  "238": 22030,
  "noun": 15156,
  "night": 2305,
  "\u30ea": 1732,
  "##ify": 8757,
  "classed": 27811,
  "soloist": 16504,
  "ill": 5665,
  "owes": 24381,
  "beacon": 14400,
  "##tracted": 24301,
  "camel": 19130,
  "mcdowell": 25005,
  "daniels": 13196,
  "planner": 24555,
  "reasoned": 24557,
  "vibrations": 22755,
  "unsafe": 25135,
  "\u02b8": 1144,
  "nosed": 29338,
  "[unused441]": 446,
  "churchill": 10888,
  "discipline": 9009,
  "red": 2417,
  "continent": 9983,
  "shone": 14707,
  "##eux": 20860,
  "snatched": 14177,
  "##idium": 28742,
  "mona": 13813,
  "brighter": 16176,
  "dong": 11947,
  "fifa": 5713,
  "##pps": 28281,
  "facade": 8508,
  "flats": 14201,
  "kaitlyn": 28584,
  "touring": 6828,
  "kicked": 6476,
  "##valent": 24879,
  "patient": 5776,
  "catchment": 22865,
  "session": 5219,
  "##kal": 12902,
  "wives": 10403,
  "deteriorating": 28440,
  "210": 12875,
  "infancy": 22813,
  "esq": 25325,
  "dickinson": 17590,
  "survival": 7691,
  "980": 25195,
  "rutgers": 18607,
  "auburn": 12704,
  "concerto": 10405,
  "veto": 22102,
  "misunderstanding": 24216,
  "homes": 5014,
  "##nas": 11649,
  "stat": 28093,
  "##uge": 22890,
  "\u207f": 1546,
  "clergyman": 22232,
  "incredible": 9788,
  "nazis": 13157,
  "##ght": 13900,
  "adopt": 11092,
  "superstar": 18795,
  "desert": 5532,
  "myles": 27056,
  "green": 2665,
  "##ult": 11314,
  "hangs": 17991,
  "industrialist": 21691,
  "outlawed": 29131,
  "rica": 11509,
  "##cy": 5666,
  "##ow": 5004,
  "luna": 12909,
  "hamas": 22129,
  "representations": 15066,
  "granting": 15080,
  "destroyed": 3908,
  "linen": 17517,
  "uno": 27776,
  "foil": 17910,
  "assemblies": 17720,
  "##\u03bf\u03c5": 26789,
  "effective": 4621,
  "monaco": 14497,
  "1972": 3285,
  "ky": 18712,
  "standard": 3115,
  "slammed": 7549,
  "##mond": 11442,
  "\u793a": 1923,
  "101": 7886,
  "onset": 14447,
  "24th": 13386,
  "ipa": 24531,
  "yank": 23178,
  "##nl": 20554,
  "60": 3438,
  "punished": 14248,
  "listeners": 13810,
  "##iac": 20469,
  "vendors": 17088,
  "sumo": 28193,
  "bats": 12236,
  "speech": 4613,
  "tickets": 9735,
  "##town": 4665,
  "ceremony": 5103,
  "canucks": 26177,
  "##tze": 23102,
  "fought": 4061,
  "##ologists": 16886,
  "radiation": 8249,
  "##\u5b80": 30344,
  "symmetrical": 23476,
  "##\u09b0": 29908,
  "colchester": 20115,
  "##oris": 21239,
  "wept": 24966,
  "turin": 13667,
  "samantha": 11415,
  "engineers": 6145,
  "imposing": 16625,
  "perceive": 23084,
  "frontal": 19124,
  "olivia": 7710,
  "##vron": 28588,
  "tanzania": 11959,
  "applicable": 12711,
  "filthy": 18294,
  "transfer": 4651,
  "leading": 2877,
  "verify": 20410,
  "\u30c6": 1713,
  "[unused226]": 231,
  "ing": 13749,
  "julius": 10396,
  "outpost": 21080,
  "09": 5641,
  "deliver": 8116,
  "diet": 8738,
  "concealed": 14091,
  "kane": 8472,
  "regimes": 25228,
  "swarm": 21708,
  "challenger": 12932,
  "##\u30ab": 30226,
  "##ensburg": 28812,
  "find": 2424,
  "honour": 6225,
  "ourselves": 9731,
  "shillings": 29332,
  "executives": 12706,
  "bulging": 27569,
  "gus": 12670,
  "caldwell": 16589,
  "inch": 4960,
  "plateau": 9814,
  "objection": 22224,
  "##iii": 28954,
  "wright": 6119,
  "##sei": 20240,
  "##\u592a": 30338,
  "then": 2059,
  "m1": 23290,
  "ave": 13642,
  "orb": 19607,
  "harmed": 25596,
  "reminding": 15906,
  "retirement": 5075,
  "##y": 2100,
  "##og": 8649,
  "nc": 13316,
  "##mc": 12458,
  "##q": 4160,
  "beak": 23525,
  "briefs": 28760,
  "paulo": 9094,
  "259": 25191,
  "footprint": 24319,
  "korean": 4759,
  "##dridge": 21482,
  "dusty": 12727,
  "##ari": 8486,
  "finalists": 13527,
  "intercontinental": 18725,
  "presses": 14616,
  "tub": 14366,
  "\u1161": 1470,
  "inhibitors": 25456,
  "evade": 26399,
  "volume": 3872,
  "##\u0627": 25573,
  "##icia": 24108,
  "mummy": 22788,
  "##rane": 18053,
  "camping": 13215,
  "1913": 5124,
  "instrumentation": 16015,
  "notorious": 12536,
  "[": 1031,
  "sara": 7354,
  "exits": 16639,
  "texted": 24637,
  "troopers": 26246,
  "lightning": 7407,
  "galilee": 28928,
  "vocabulary": 16188,
  "subsidy": 28768,
  "meteor": 23879,
  "##gman": 25494,
  "adolescence": 29101,
  "##brook": 9697,
  "##nie": 8034,
  "##\u0e2d": 29957,
  "ignorance": 18173,
  "##\u624b": 30384,
  "month": 3204,
  "prosecuted": 21651,
  "420": 17442,
  "1990": 2901,
  "action": 2895,
  "##ehan": 24660,
  "collided": 17745,
  "conditioning": 14372,
  "##play": 13068,
  "lauded": 26507,
  "scan": 13594,
  "coding": 16861,
  "hospitals": 8323,
  "ne": 11265,
  "teens": 13496,
  "##\u300d": 30168,
  "##ech": 15937,
  "large": 2312,
  "britney": 29168,
  "fireplace": 13788,
  "hesitantly": 24626,
  "##rdy": 17460,
  "navigation": 9163,
  "tombs": 16623,
  "kyiv": 25669,
  "dime": 27211,
  "cm": 4642,
  "neither": 4445,
  "bombings": 20109,
  "workforce": 14877,
  "neighbourhood": 10971,
  "pharmacy": 13882,
  "throws": 11618,
  "##\u05d9": 29796,
  "amp": 23713,
  "generator": 13103,
  "childish": 24282,
  "1863": 6899,
  "elbow": 8999,
  "deputy": 4112,
  "\u5ca1": 1832,
  "astonished": 22741,
  "##vid": 17258,
  "puppets": 26101,
  "##chner": 28254,
  "element": 5783,
  "millimetres": 13388,
  "decrease": 9885,
  "piano": 3682,
  "lexie": 24123,
  "translate": 17637,
  "travis": 10001,
  "##5": 2629,
  "store": 3573,
  "hotter": 22302,
  "##sia": 8464,
  "news": 2739,
  "franklin": 5951,
  "puzzles": 19672,
  "engagements": 20583,
  "##tty": 15353,
  "basha": 26074,
  "exception": 6453,
  "\u53e3": 1788,
  "comedy": 4038,
  "greeted": 11188,
  "enters": 8039,
  "ran": 2743,
  "grief": 9940,
  "intentionally": 15734,
  "miraculous": 26106,
  "saratoga": 23136,
  "ter": 28774,
  "thy": 15177,
  "##nett": 15361,
  "##dya": 25838,
  "yielding": 21336,
  "331": 27533,
  "impact": 4254,
  "idiots": 28781,
  "##rose": 13278,
  "rib": 19395,
  "stephens": 15037,
  "##lley": 25105,
  "alexandre": 16971,
  "bonn": 19349,
  "##gate": 5867,
  "##onda": 29067,
  "films": 3152,
  "mercedes": 10793,
  "think": 2228,
  "zombie": 11798,
  "hamish": 28859,
  "sponsoring": 29396,
  "##wer": 13777,
  "harmony": 9396,
  "hostility": 18258,
  "[unused153]": 158,
  "tent": 9311,
  "nothin": 24218,
  "acoustic": 6490,
  "brightest": 26849,
  "insertion": 23851,
  "##zen": 10431,
  "\u7ae0": 1932,
  "##lines": 12735,
  "isles": 14195,
  "horrible": 9202,
  "reconnaissance": 8967,
  "##chison": 27795,
  "##\u03b9\u03b1": 27432,
  "##\u20b1": 30103,
  "critic": 6232,
  "jennie": 27557,
  "[unused208]": 213,
  "\u795e": 1925,
  "fooled": 25857,
  "supplies": 6067,
  "willard": 19138,
  "enabled": 9124,
  "morris": 6384,
  "protagonist": 10191,
  "foe": 22277,
  "[unused88]": 89,
  "fi": 10882,
  "lacrosse": 13488,
  "limestone": 9771,
  "diocese": 5801,
  "\u30a6": 1696,
  "##43": 23777,
  "consensus": 10465,
  "clancy": 24530,
  "chuck": 8057,
  "pressing": 7827,
  "basal": 15191,
  "nursery": 13640,
  "restrict": 21573,
  "chunks": 24839,
  "linux": 11603,
  "##ulia": 20922,
  "##etto": 20082,
  "counterattack": 27835,
  "liked": 4669,
  "\u062e": 1277,
  "carried": 3344,
  "##\u2295": 30139,
  "\u4e09": 1741,
  "credibility": 21553,
  "stumbling": 19730,
  "allergic": 27395,
  "outlook": 17680,
  "##girl": 15239,
  "weston": 12755,
  "##por": 17822,
  "##zog": 28505,
  "aware": 5204,
  "##efe": 27235,
  "digger": 28661,
  "heavyweight": 8366,
  "cemetery": 4528,
  "canyon": 8399,
  "chill": 10720,
  "[unused568]": 573,
  "multinational": 20584,
  "##\u06af": 29842,
  "depart": 18280,
  "##lish": 13602,
  "displaced": 12936,
  "[unused298]": 303,
  "resemblance": 14062,
  "rolled": 4565,
  "commissions": 13239,
  "leah": 14188,
  "heated": 9685,
  "humming": 20364,
  "hindi": 9269,
  "lopez": 8685,
  "succeeded": 4594,
  "beneath": 4218,
  "insurgents": 20541,
  "sheds": 25999,
  "[unused590]": 595,
  "##holes": 19990,
  "bancroft": 29351,
  "willing": 5627,
  "authorities": 4614,
  "local": 2334,
  "antiquity": 16433,
  "\u2217": 1598,
  "##ctive": 15277,
  "109": 11518,
  "denmark": 5842,
  "ribbon": 10557,
  "restraint": 19355,
  "[unused956]": 961,
  "\u539f": 1787,
  "statistical": 7778,
  "via": 3081,
  "admiral": 5902,
  "kissing": 7618,
  "141": 15471,
  "##\u3061": 30188,
  "taking": 2635,
  "##js": 22578,
  "afrikaans": 28673,
  "downstream": 13248,
  "##ers": 2545,
  "frequencies": 13139,
  "ceasefire": 26277,
  "trauma": 12603,
  "##oco": 24163,
  "##\u5e73": 30365,
  "mcmahon": 17741,
  "georgina": 27358,
  "purification": 28406,
  "weimar": 20695,
  "\u4e0d": 1744,
  "##\u0f66": 29972,
  "jacobs": 12988,
  "##rard": 25561,
  "##dio": 20617,
  "argyle": 26503,
  "friction": 15012,
  "yukon": 19898,
  "##eke": 23941,
  "wavy": 23098,
  "##vich": 12933,
  "##\u5206": 30301,
  "1945": 3386,
  "oversaw": 14105,
  "collective": 7268,
  "logos": 25571,
  "lavish": 22689,
  "knocks": 21145,
  "widely": 4235,
  "malta": 9933,
  "##\u1103": 29993,
  "doubles": 7695,
  "##kla": 26086,
  "tatiana": 22725,
  "uncovered": 14486,
  "icons": 18407,
  "##\u0570": 29775,
  "cube": 14291,
  "lankan": 16159,
  "reacher": 22970,
  "janice": 20029,
  "rann": 26312,
  "##ellant": 24178,
  "medalist": 12968,
  "opens": 7480,
  "graphic": 8425,
  "pretoria": 25366,
  "done": 2589,
  "moan": 13673,
  "##mous": 27711,
  "assume": 7868,
  "rehearsals": 24760,
  "##kir": 23630,
  "benji": 27231,
  "##well": 4381,
  "##inate": 14776,
  "[unused308]": 313,
  "sanctioned": 14755,
  "organism": 15923,
  "recounts": 23412,
  "relax": 9483,
  "tessa": 13167,
  "upstairs": 8721,
  "boar": 24187,
  "supplied": 8127,
  "##ground": 16365,
  "indicators": 20390,
  "quezon": 26564,
  "lyndon": 23037,
  "##mation": 28649,
  "frustrated": 10206,
  "whispers": 11054,
  "justices": 19867,
  "gottingen": 23607,
  "##ave": 10696,
  "##kill": 15872,
  "withstand": 19319,
  "complementary": 21053,
  "recommendations": 11433,
  "marginal": 14785,
  "departure": 6712,
  "##\u82b1": 30466,
  "690": 28066,
  "variety": 3528,
  "##ised": 5084,
  "demonstrating": 14313,
  "jesuit": 13840,
  "cad": 28353,
  "leak": 17271,
  "kitchener": 27154,
  "blamed": 11248,
  "liability": 14000,
  "rotate": 24357,
  "halfway": 8576,
  "\u30ab": 1700,
  "disneyland": 25104,
  "##chers": 21844,
  "##ead": 13775,
  "atlantis": 16637,
  "satellite": 5871,
  "labyrinth": 24239,
  "##kki": 24103,
  "##bbly": 24200,
  "##americana": 27026,
  "analyzing": 20253,
  "insurgency": 23939,
  "##tila": 26065,
  "serge": 21747,
  "##scope": 26127,
  "##nivorous": 29193,
  "##tance": 26897,
  "girls": 3057,
  "\u0648": 1298,
  "\u10db": 1448,
  "##name": 18442,
  "tempest": 22553,
  "current": 2783,
  "##iae": 19001,
  "groves": 21695,
  "binoculars": 29549,
  "ft": 3027,
  "accountant": 17907,
  "locally": 7246,
  "-": 1011,
  "replacing": 6419,
  "shaken": 16697,
  "244": 24194,
  "sunderland": 15518,
  "[unused411]": 416,
  "ideology": 13165,
  "blankets": 15019,
  "manning": 11956,
  "signs": 5751,
  "innings": 7202,
  "write": 4339,
  "##rik": 15564,
  "##ack": 8684,
  "alcoholism": 25519,
  "manga": 8952,
  "##tron": 15312,
  "alexandria": 10297,
  "constantly": 7887,
  "meritorious": 22053,
  "pantry": 27796,
  "echo": 9052,
  "progress": 5082,
  "bag": 4524,
  "hang": 6865,
  "\u09c0": 1380,
  "trois": 25527,
  "hormones": 20752,
  "ratios": 21879,
  "antennae": 28624,
  "anatomy": 13336,
  "fixing": 15887,
  "doctrine": 8998,
  "rival": 6538,
  "guided": 8546,
  "migration": 9230,
  "install": 16500,
  "\u067e": 1302,
  "access": 3229,
  "construct": 9570,
  "epa": 19044,
  "##chenko": 25872,
  "1941": 3874,
  "obsidian": 29042,
  "dumping": 23642,
  "whatever": 3649,
  "muttering": 22581,
  "resolutions": 18853,
  "\u0ba9": 1387,
  "griffiths": 21960,
  "##\u028c": 29700,
  "ag": 12943,
  "concept": 4145,
  "cougars": 26317,
  "fairs": 21947,
  "pioneering": 13280,
  "packed": 8966,
  "##hwa": 18663,
  "sailors": 11279,
  "##vira": 24093,
  "\u0649": 1299,
  "musically": 21385,
  "opponents": 7892,
  "sank": 7569,
  "##27": 22907,
  "lucie": 28831,
  "##out": 5833,
  "##\u4f8d": 30291,
  "artefacts": 25762,
  "duties": 5704,
  "##merie": 28677,
  "institutional": 12148,
  "lenny": 19065,
  "rules": 3513,
  "sufficiently": 12949,
  "vampire": 4393,
  "xl": 28712,
  "##ropolis": 23248,
  "pig": 10369,
  "##\u1100": 29991,
  "sermons": 20855,
  "rattling": 26347,
  "quarterback": 9074,
  "\u2205": 1593,
  "hole": 4920,
  "\u05e0": 1257,
  "1795": 13397,
  "angela": 10413,
  "salvation": 12611,
  "narrated": 17356,
  "preacher": 14512,
  "viking": 12886,
  "creole": 21414,
  "intended": 3832,
  "bangs": 28490,
  "wb": 25610,
  "kristen": 22435,
  "slung": 20078,
  "##mal": 9067,
  "acknowledge": 13399,
  "pains": 20398,
  "prohibiting": 26325,
  "##\u0454": 29759,
  "tangle": 24453,
  "\u2032": 1531,
  "likened": 28834,
  "internally": 16058,
  "##ever": 22507,
  "studied": 3273,
  "lucknow": 23571,
  "##pod": 27633,
  "##\u2154": 30110,
  "\u7537": 1912,
  "510": 23475,
  "suggest": 6592,
  "follows": 4076,
  "held": 2218,
  "wired": 17502,
  "\u110b": 1463,
  "scratch": 11969,
  "entropy": 23077,
  "##if": 10128,
  "relaxation": 23370,
  "isis": 18301,
  "approved": 4844,
  "##lova": 24221,
  "encountered": 8567,
  "goin": 17249,
  "brett": 12049,
  "chile": 7029,
  "consolation": 24831,
  "trillion": 23458,
  "\u1d65": 1510,
  "##ntial": 19909,
  "fuel": 4762,
  "inform": 12367,
  "turning": 3810,
  "robson": 23698,
  "chances": 9592,
  "revive": 17995,
  "tavern": 13090,
  "##oid": 9314,
  "muslim": 5152,
  "assure": 14306,
  "##lellan": 25839,
  "crush": 10188,
  "baked": 17776,
  "jason": 4463,
  "rosie": 15820,
  "sales": 4341,
  "threat": 5081,
  "empowerment": 23011,
  "gaga": 23332,
  "[unused473]": 478,
  "expects": 24273,
  "fourteen": 7426,
  "pillows": 17860,
  "hampstead": 29557,
  "defenses": 13345,
  "##fighter": 20027,
  "cooperation": 6792,
  "\u306e": 1671,
  "##\u53f2": 30316,
  "affiliation": 12912,
  "\u1103": 1457,
  "draft": 4433,
  "[unused21]": 22,
  "blessing": 13301,
  "demographic": 15982,
  "glancing": 10167,
  "sarawak": 21546,
  "sixteenth": 14683,
  "credited": 5827,
  "identified": 4453,
  "lung": 11192,
  "church": 2277,
  "choke": 16769,
  "footballers": 27784,
  "##bad": 9024,
  "##drum": 21884,
  "milling": 22491,
  "glad": 5580,
  "##ichi": 11319,
  "pair": 3940,
  "wander": 17677,
  "##cock": 13959,
  "emery": 24294,
  "##ques": 10997,
  "cornell": 10921,
  "subway": 10798,
  "[unused218]": 223,
  "##scu": 28817,
  "enslaved": 22216,
  "flopped": 24723,
  "##hetic": 20086,
  "bolsheviks": 28755,
  "substitutes": 29200,
  "##rit": 14778,
  "anthony": 4938,
  "net": 5658,
  "pressured": 25227,
  "afar": 28978,
  "##hered": 27190,
  "operators": 9224,
  "##lau": 17298,
  "young": 2402,
  "enter": 4607,
  "nap": 18996,
  "##hir": 11961,
  "aliens": 12114,
  "##des": 6155,
  "crashing": 12894,
  "\u06c1": 1308,
  "shrine": 9571,
  "depended": 17292,
  "ep": 4958,
  "tq": 28816,
  "ode": 24040,
  "sketches": 12741,
  "cough": 19340,
  "[unused0]": 1,
  "[unused798]": 803,
  "temperatures": 7715,
  "geological": 9843,
  "radioactive": 17669,
  "##ssing": 18965,
  "##\u5185": 30299,
  "[unused466]": 471,
  "baseman": 18038,
  "binding": 8031,
  "introductory": 23889,
  "mediterranean": 7095,
  "patronage": 15694,
  "yell": 14315,
  "pace": 6393,
  "recovery": 7233,
  "martinique": 29365,
  "##\u3008": 30163,
  "synagogue": 13067,
  "aboriginal": 9757,
  "1892": 6527,
  "gt": 14181,
  "\u2016": 1519,
  "fares": 27092,
  "ashford": 26545,
  "eng": 25540,
  "shakespeare": 8101,
  "##col": 25778,
  "aboard": 7548,
  "homework": 19453,
  "1841": 9840,
  "ars": 29393,
  "criticism": 6256,
  "[unused700]": 705,
  "inputs": 20407,
  "gem": 17070,
  "queer": 19483,
  "rodney": 13898,
  "##lp": 14277,
  "assisted": 7197,
  "laugh": 4756,
  "controller": 11486,
  "watson": 7908,
  "anybody": 10334,
  "replay": 15712,
  "spectrum": 8674,
  "grayson": 17556,
  "##uary": 24384,
  "dissolution": 12275,
  "confidential": 18777,
  "lunar": 11926,
  "tar": 16985,
  "shuddered": 13937,
  "treatment": 3949,
  "lyle": 21971,
  "slumped": 14319,
  "exports": 14338,
  "elise": 14251,
  "rehabilitation": 11252,
  "pistons": 24399,
  "freedom": 4071,
  "antiques": 27763,
  "projects": 3934,
  "tempo": 13657,
  "suspicious": 10027,
  "bury": 11010,
  "hitch": 27738,
  "csa": 27804,
  "##kovich": 28195,
  "##ming": 6562,
  "clarissa": 25260,
  "ominous": 23504,
  "##rity": 15780,
  "##ums": 18163,
  "bruises": 18438,
  "##rooms": 29020,
  "##\u0937": 29873,
  "##uchi": 15217,
  "crime": 4126,
  "parker": 6262,
  "##\u0925": 29860,
  "298": 27240,
  "1900": 5141,
  "drawn": 4567,
  "##hoff": 17896,
  "evenings": 16241,
  "chains": 8859,
  "##vr": 19716,
  "magnet": 16853,
  "##uppe": 29547,
  "ass": 4632,
  "augusta": 13635,
  "unofficially": 29322,
  "##\u0e22": 29952,
  "##ams": 13596,
  "prophet": 12168,
  "##psy": 18075,
  "[unused410]": 415,
  "cops": 10558,
  "valuation": 26004,
  "##abas": 27537,
  "##ckey": 29183,
  "confederates": 24627,
  "moved": 2333,
  "##iam": 25107,
  "silent": 4333,
  "earle": 23888,
  "flavour": 28126,
  "tehsil": 20751,
  "roland": 8262,
  "\u30ed": 1735,
  "41st": 24233,
  "accelerator": 23468,
  "96": 5986,
  "wondered": 4999,
  "##eb": 15878,
  "robbie": 12289,
  "\u05d1": 1242,
  "banco": 28678,
  "looted": 27775,
  "winkler": 20472,
  "1930s": 5687,
  "fiction": 4349,
  "marko": 28003,
  "runaway": 19050,
  "##rger": 25858,
  "tick": 16356,
  "\u308d": 1689,
  "##dell": 12662,
  "##inda": 23938,
  "##eld": 14273,
  "##itors": 27287,
  "##22": 19317,
  "almeida": 29555,
  "gigs": 20929,
  "julio": 15090,
  "nmi": 22484,
  "cairo": 11096,
  "assets": 7045,
  "corner": 3420,
  "fatima": 27596,
  "bosch": 25936,
  "alternate": 6585,
  "buffet": 28305,
  "might": 2453,
  "paints": 23262,
  "suck": 11891,
  "published": 2405,
  "\u7fa9": 1936,
  "holstein": 18864,
  "stiffened": 16090,
  "bankers": 25375,
  "##tia": 10711,
  "quieter": 27486,
  "\u0127": 1103,
  "localized": 22574,
  "container": 11661,
  "states": 2163,
  "##scoe": 28147,
  "relaxing": 19613,
  "\u2098": 1567,
  "##\u516b": 30297,
  "sylvie": 26009,
  "absorbing": 20998,
  "cadet": 12738,
  "\u4e16": 1745,
  "colonization": 18962,
  "shield": 6099,
  "bully": 20716,
  "behave": 16582,
  "flicker": 17909,
  "gerald": 9659,
  "kimberley": 25004,
  "##mi": 4328,
  "disadvantaged": 27322,
  "##drik": 28730,
  "##bahn": 16052,
  "debts": 13930,
  "tangled": 14170,
  "crane": 11308,
  "locks": 11223,
  "billions": 25501,
  "\u0294": 1139,
  "lincoln": 5367,
  "\u0679": 1301,
  "[unused731]": 736,
  "bingham": 24579,
  "flung": 14016,
  "610": 19827,
  "249": 23628,
  "greece": 5483,
  "\u540d": 1795,
  "\u83ef": 1942,
  "[unused140]": 145,
  "badges": 23433,
  "##ounded": 26240,
  "##\u099c": 29894,
  "##oper": 25918,
  "clarified": 20485,
  "##\u201d": 30059,
  "control": 2491,
  "demi": 27668,
  "siberian": 21822,
  "##j": 3501,
  "reveals": 7657,
  "##cheon": 28099,
  "hockey": 3873,
  "waters": 5380,
  "ibrahim": 13477,
  "forge": 15681,
  "##una": 9521,
  "bedside": 19475,
  "naomi": 12806,
  "muzzle": 17750,
  "##ax": 8528,
  "donate": 21357,
  "placement": 11073,
  "##itung": 28813,
  "broadly": 13644,
  "\u1d49": 1499,
  "coa": 28155,
  "raced": 8255,
  "colony": 5701,
  "schedule": 6134,
  "drilled": 24311,
  "names": 3415,
  "wasting": 18313,
  "unease": 27880,
  "vaults": 28658,
  "katz": 20729,
  "travelled": 7837,
  "23": 2603,
  "dispute": 7593,
  "##oxide": 28479,
  "##\u0dba": 29940,
  "audience": 4378,
  "[unused341]": 346,
  "experiments": 7885,
  "nz": 20008,
  "##sily": 26863,
  "##tile": 15286,
  "##mount": 20048,
  "dangers": 16796,
  "brushed": 7765,
  "cornered": 25878,
  "give": 2507,
  "plaintiffs": 23953,
  "activists": 10134,
  "canadiens": 21247,
  "ri": 15544,
  "subdivisions": 22095,
  "substances": 13978,
  "wink": 16837,
  "##dust": 24220,
  "##kti": 22462,
  "recapture": 27639,
  "broadcast": 3743,
  "charles": 2798,
  "dialogue": 7982,
  "cpi": 28780,
  "seed": 6534,
  "strands": 14119,
  "1817": 12529,
  "\u026f": 1122,
  "[unused252]": 257,
  "##dai": 21351,
  "start": 2707,
  "\u209b": 1570,
  "##rian": 6862,
  "##gis": 17701,
  "accompanying": 10860,
  "squeak": 29552,
  "coordinator": 10669,
  "bands": 4996,
  "extension": 5331,
  "people": 2111,
  "chalmers": 29069,
  "regarded": 5240,
  "management": 2968,
  "congestion": 20176,
  "attacking": 7866,
  "blush": 16688,
  "cassie": 8869,
  "cypress": 22183,
  "detect": 11487,
  "helps": 7126,
  "singing": 4823,
  "vicente": 17280,
  "dodd": 21258,
  "baron": 5797,
  "mara": 13955,
  "34": 4090,
  "##chy": 11714,
  "##sboro": 25623,
  "warmth": 8251,
  "clap": 28618,
  "jury": 6467,
  "pakistani": 9889,
  "1830s": 20400,
  "##ile": 9463,
  "beginnings": 16508,
  "fibre": 20962,
  "ric": 26220,
  "##\u057f": 29783,
  "malaysia": 6027,
  "racing": 3868,
  "##washed": 27283,
  "dim": 11737,
  "greco": 18180,
  "##hey": 14844,
  "looking": 2559,
  "accident": 4926,
  "##inatory": 28230,
  "handler": 28213,
  "practically": 8134,
  "##vate": 16952,
  "mentioned": 3855,
  "carmichael": 23537,
  "sheffield": 8533,
  "embankment": 22756,
  "##\u00b0": 7737,
  "hurdle": 27630,
  "cecil": 11978,
  "rockefeller": 16696,
  "captured": 4110,
  "levant": 24485,
  "##oney": 17791,
  "alam": 26234,
  "sato": 20251,
  "clone": 17598,
  "clover": 25133,
  "enclosed": 10837,
  "lowers": 24950,
  "##titled": 21309,
  "1664": 28485,
  "morocco": 9835,
  "heating": 10808,
  "rockwell": 25235,
  "##\u03b7": 24824,
  "##tive": 6024,
  "abbas": 17532,
  "shu": 18454,
  "##rani": 21578,
  "gravel": 11127,
  "hyun": 21108,
  "##nsk": 25564,
  "rpg": 22531,
  "redding": 26687,
  "undo": 25672,
  "denis": 11064,
  "sincerity": 23997,
  "##\u0bbf": 29932,
  "[unused963]": 968,
  "##gen": 6914,
  "isabella": 10323,
  "braden": 27232,
  "airports": 13586,
  "wrestled": 20615,
  "graves": 9729,
  "rochdale": 26109,
  "yugoslav": 12292,
  "accents": 24947,
  "costa": 6849,
  "[unused468]": 473,
  "grabbing": 9775,
  "1702": 26776,
  "ross": 5811,
  "singer": 3220,
  "tasting": 18767,
  "pills": 15345,
  "contrast": 5688,
[...]
